{"version":"1.0","truncation":null,"padding":null,"added_tokens":[{"id":0,"special":true,"content":"","single_word":false,"lstrip":false,"rstrip":false,"normalized":false},{"id":1,"special":true,"content":"","single_word":false,"lstrip":false,"rstrip":false,"normalized":false},{"id":2,"special":true,"content":"","single_word":false,"lstrip":false,"rstrip":false,"normalized":false},{"id":3,"special":true,"content":"\u0000","single_word":false,"lstrip":false,"rstrip":false,"normalized":false}],"normalizer":null,"pre_tokenizer":{"type":"Whitespace"},"post_processor":null,"decoder":null,"model":{"type":"BPE","dropout":null,"unk_token":"","continuing_subword_prefix":null,"end_of_word_suffix":null,"fuse_unk":false,"vocab":{"":0,"":1,"":2,"\u0000":3,"!":4,"\"":5,"#":6,"$":7,"%":8,"&":9,"'":10,"(":11,")":12,"*":13,"+":14,",":15,"-":16,".":17,"/":18,"0":19,"1":20,"2":21,"3":22,"4":23,"5":24,"6":25,"7":26,"8":27,"9":28,":":29,";":30,"<":31,"=":32,">":33,"?":34,"@":35,"A":36,"B":37,"C":38,"D":39,"E":40,"F":41,"G":42,"H":43,"I":44,"J":45,"K":46,"L":47,"M":48,"N":49,"O":50,"P":51,"Q":52,"R":53,"S":54,"T":55,"U":56,"V":57,"W":58,"X":59,"Y":60,"Z":61,"[":62,"\\":63,"]":64,"^":65,"_":66,"`":67,"a":68,"b":69,"c":70,"d":71,"e":72,"f":73,"g":74,"h":75,"i":76,"j":77,"k":78,"l":79,"m":80,"n":81,"o":82,"p":83,"q":84,"r":85,"s":86,"t":87,"u":88,"v":89,"w":90,"x":91,"y":92,"z":93,"{":94,"|":95,"}":96,"~":97,"¡":98,"¢":99,"£":100,"¤":101,"¥":102,"¦":103,"§":104,"©":105,"«":106,"¬":107,"®":108,"°":109,"±":110,"¶":111,"·":112,"»":113,"¿":114,"À":115,"Á":116,"Â":117,"Ã":118,"Ä":119,"Å":120,"Æ":121,"Ç":122,"È":123,"É":124,"Ê":125,"Ë":126,"Ì":127,"Í":128,"Î":129,"Ï":130,"Ð":131,"Ñ":132,"Ò":133,"Ó":134,"Ô":135,"Õ":136,"Ö":137,"×":138,"Ø":139,"Ù":140,"Ú":141,"Û":142,"Ü":143,"Ý":144,"Þ":145,"ß":146,"à":147,"á":148,"â":149,"ã":150,"ä":151,"å":152,"æ":153,"ç":154,"è":155,"é":156,"ê":157,"ë":158,"ì":159,"í":160,"î":161,"ï":162,"ð":163,"ñ":164,"ò":165,"ó":166,"ô":167,"õ":168,"ö":169,"÷":170,"ø":171,"ù":172,"ú":173,"û":174,"ü":175,"ý":176,"þ":177,"ÿ":178,"Ā":179,"ā":180,"Ă":181,"ă":182,"Ą":183,"ą":184,"Ć":185,"ć":186,"Ĉ":187,"ĉ":188,"Ċ":189,"ċ":190,"Č":191,"č":192,"Ď":193,"ď":194,"Đ":195,"đ":196,"Ē":197,"ē":198,"Ĕ":199,"ĕ":200,"Ė":201,"ė":202,"Ę":203,"ę":204,"Ě":205,"ě":206,"Ĝ":207,"ĝ":208,"Ğ":209,"ğ":210,"Ġ":211,"ġ":212,"Ģ":213,"ģ":214,"Ĥ":215,"ĥ":216,"Ħ":217,"ħ":218,"Ĩ":219,"ĩ":220,"Ī":221,"ī":222,"Ĭ":223,"ĭ":224,"Į":225,"į":226,"İ":227,"ı":228,"Ĵ":229,"ĵ":230,"Ķ":231,"ķ":232,"ĸ":233,"Ĺ":234,"ĺ":235,"Ļ":236,"ļ":237,"Ľ":238,"ľ":239,"Ł":240,"ł":241,"Ń":242,"ń":243,"Ņ":244,"ņ":245,"Ň":246,"ň":247,"Ŋ":248,"ŋ":249,"Ō":250,"ō":251,"Ŏ":252,"ŏ":253,"Ő":254,"ő":255,"Œ":256,"œ":257,"Ŕ":258,"ŕ":259,"Ŗ":260,"ŗ":261,"Ř":262,"ř":263,"Ś":264,"ś":265,"Ŝ":266,"ŝ":267,"Ş":268,"ş":269,"Š":270,"š":271,"Ţ":272,"ţ":273,"Ť":274,"ť":275,"Ŧ":276,"ŧ":277,"Ũ":278,"ũ":279,"Ū":280,"ū":281,"Ŭ":282,"ŭ":283,"Ů":284,"ů":285,"Ű":286,"ű":287,"Ų":288,"ų":289,"Ŵ":290,"ŵ":291,"Ŷ":292,"ŷ":293,"Ÿ":294,"Ź":295,"ź":296,"Ż":297,"ż":298,"Ž":299,"ž":300,"ƀ":301,"Ɓ":302,"Ƃ":303,"ƃ":304,"ƅ":305,"Ɔ":306,"ƈ":307,"Ɖ":308,"Ɗ":309,"Ƌ":310,"ƌ":311,"Ǝ":312,"Ə":313,"Ɛ":314,"Ƒ":315,"ƒ":316,"Ɣ":317,"ƕ":318,"ƙ":319,"ƚ":320,"ƛ":321,"Ɲ":322,"Ơ":323,"ơ":324,"Ƣ":325,"ƣ":326,"Ƥ":327,"ƥ":328,"Ƨ":329,"Ʃ":330,"ƫ":331,"ƭ":332,"Ư":333,"ư":334,"Ʋ":335,"Ƴ":336,"ƴ":337,"Ƶ":338,"ƶ":339,"Ʒ":340,"ƾ":341,"ƿ":342,"ǀ":343,"ǁ":344,"ǂ":345,"ǃ":346,"Ǎ":347,"ǎ":348,"ǐ":349,"ǒ":350,"ǔ":351,"ǖ":352,"ǘ":353,"ǚ":354,"ǜ":355,"ǝ":356,"Ǟ":357,"ǟ":358,"ǣ":359,"Ǥ":360,"ǥ":361,"Ǧ":362,"ǧ":363,"ǩ":364,"Ǫ":365,"ǫ":366,"Ǭ":367,"ǭ":368,"ǯ":369,"ǰ":370,"Ǵ":371,"ǵ":372,"Ƿ":373,"Ǹ":374,"ǹ":375,"ǽ":376,"Ǿ":377,"ǿ":378,"ȁ":379,"ȃ":380,"ȇ":381,"ȉ":382,"ȋ":383,"ȍ":384,"ȏ":385,"ȓ":386,"ȗ":387,"Ș":388,"ș":389,"Ț":390,"ț":391,"Ȝ":392,"ȝ":393,"Ȟ":394,"ȟ":395,"ȡ":396,"ȣ":397,"Ȥ":398,"ȥ":399,"ȧ":400,"ȩ":401,"ȫ":402,"Ȭ":403,"ȭ":404,"Ȯ":405,"ȯ":406,"Ȱ":407,"ȱ":408,"Ȳ":409,"ȳ":410,"ȵ":411,"ȶ":412,"ȷ":413,"Ⱥ":414,"Ȼ":415,"Ƚ":416,"Ⱦ":417,"Ƀ":418,"ɇ":419,"Ɏ":420,"ɏ":421,"ɐ":422,"ɑ":423,"ɒ":424,"ɓ":425,"ɔ":426,"ɕ":427,"ɖ":428,"ɗ":429,"ɘ":430,"ə":431,"ɚ":432,"ɛ":433,"ɜ":434,"ɝ":435,"ɞ":436,"ɟ":437,"ɠ":438,"ɡ":439,"ɢ":440,"ɣ":441,"ɤ":442,"ɥ":443,"ɦ":444,"ɧ":445,"ɨ":446,"ɩ":447,"ɪ":448,"ɫ":449,"ɬ":450,"ɭ":451,"ɮ":452,"ɯ":453,"ɰ":454,"ɱ":455,"ɲ":456,"ɳ":457,"ɴ":458,"ɵ":459,"ɶ":460,"ɷ":461,"ɸ":462,"ɹ":463,"ɺ":464,"ɻ":465,"ɼ":466,"ɽ":467,"ɾ":468,"ɿ":469,"ʀ":470,"ʁ":471,"ʂ":472,"ʃ":473,"ʄ":474,"ʅ":475,"ʆ":476,"ʇ":477,"ʈ":478,"ʉ":479,"ʊ":480,"ʋ":481,"ʌ":482,"ʍ":483,"ʎ":484,"ʏ":485,"ʐ":486,"ʑ":487,"ʒ":488,"ʓ":489,"ʔ":490,"ʕ":491,"ʖ":492,"ʗ":493,"ʘ":494,"ʙ":495,"ʛ":496,"ʜ":497,"ʝ":498,"ʞ":499,"ʟ":500,"ʠ":501,"ʡ":502,"ʢ":503,"ʣ":504,"ʤ":505,"ʥ":506,"ʦ":507,"ʧ":508,"ʨ":509,"ʬ":510,"ʭ":511,"ʮ":512,"ʯ":513,"ʹ":514,"ʺ":515,"ʻ":516,"ʼ":517,"ʽ":518,"ʾ":519,"ʿ":520,"ˀ":521,"ˁ":522,"˅":523,"ˆ":524,"ˇ":525,"ˈ":526,"ˉ":527,"ˊ":528,"ˋ":529,"ˌ":530,"ː":531,"ˑ":532,"˔":533,"˕":534,"˖":535,"˞":536,"˥":537,"˦":538,"˧":539,"˨":540,"˩":541,"˭":542,"ˮ":543,"˳":544,"̀":545,"́":546,"̂":547,"̃":548,"̄":549,"̅":550,"̆":551,"̇":552,"̈":553,"̉":554,"̊":555,"̋":556,"̌":557,"̍":558,"̎":559,"̏":560,"̐":561,"̑":562,"̓":563,"̔":564,"̕":565,"̘":566,"̙":567,"̚":568,"̜":569,"̝":570,"̞":571,"̟":572,"̠":573,"̡":574,"̣":575,"̤":576,"̥":577,"̦":578,"̧":579,"̨":580,"̩":581,"̪":582,"̫":583,"̬":584,"̮":585,"̯":586,"̰":587,"̱":588,"̲":589,"̴":590,"̵":591,"̶":592,"̷":593,"̸":594,"̹":595,"̺":596,"̻":597,"̼":598,"̽":599,"̿":600,"͂":601,"ͅ":602,"͆":603,"͇":604,"͈":605,"͊":606,"͍":607,"͎":608,"͏":609,"͑":610,"͗":611,"͘":612,"͜":613,"͟":614,"͡":615,"ͧ":616,"Ͱ":617,"ͱ":618,"Ͳ":619,"͵":620,"Ά":621,"Έ":622,"Ή":623,"Ί":624,"Ό":625,"Ύ":626,"Ώ":627,"ΐ":628,"Α":629,"Β":630,"Γ":631,"Δ":632,"Ε":633,"Ζ":634,"Η":635,"Θ":636,"Ι":637,"Κ":638,"Λ":639,"Μ":640,"Ν":641,"Ξ":642,"Ο":643,"Π":644,"Ρ":645,"Σ":646,"Τ":647,"Υ":648,"Φ":649,"Χ":650,"Ψ":651,"Ω":652,"Ϊ":653,"Ϋ":654,"ά":655,"έ":656,"ή":657,"ί":658,"ΰ":659,"α":660,"β":661,"γ":662,"δ":663,"ε":664,"ζ":665,"η":666,"θ":667,"ι":668,"κ":669,"λ":670,"μ":671,"ν":672,"ξ":673,"ο":674,"π":675,"ρ":676,"ς":677,"σ":678,"τ":679,"υ":680,"φ":681,"χ":682,"ψ":683,"ω":684,"ϊ":685,"ϋ":686,"ό":687,"ύ":688,"ώ":689,"Ϙ":690,"ϙ":691,"Ϛ":692,"ϛ":693,"Ϝ":694,"ϝ":695,"Ϟ":696,"ϟ":697,"Ϡ":698,"ϡ":699,"Ϣ":700,"ϣ":701,"ϥ":702,"ϩ":703,"Ϫ":704,"Ϯ":705,"ϯ":706,"Ϸ":707,"ϸ":708,"Ϻ":709,"ϻ":710,"Ͻ":711,"Ͼ":712,"Ͽ":713,"Ѐ":714,"Ё":715,"Ђ":716,"Ѓ":717,"Є":718,"Ѕ":719,"І":720,"Ї":721,"Ј":722,"Љ":723,"Њ":724,"Ћ":725,"Ќ":726,"Ѝ":727,"Ў":728,"Џ":729,"А":730,"Б":731,"В":732,"Г":733,"Д":734,"Е":735,"Ж":736,"З":737,"И":738,"Й":739,"К":740,"Л":741,"М":742,"Н":743,"О":744,"П":745,"Р":746,"С":747,"Т":748,"У":749,"Ф":750,"Х":751,"Ц":752,"Ч":753,"Ш":754,"Щ":755,"Ъ":756,"Ы":757,"Ь":758,"Э":759,"Ю":760,"Я":761,"а":762,"б":763,"в":764,"г":765,"д":766,"е":767,"ж":768,"з":769,"и":770,"й":771,"к":772,"л":773,"м":774,"н":775,"о":776,"п":777,"р":778,"с":779,"т":780,"у":781,"ф":782,"х":783,"ц":784,"ч":785,"ш":786,"щ":787,"ъ":788,"ы":789,"ь":790,"э":791,"ю":792,"я":793,"ѐ":794,"ё":795,"ђ":796,"ѓ":797,"є":798,"ѕ":799,"і":800,"ї":801,"ј":802,"љ":803,"њ":804,"ћ":805,"ќ":806,"ѝ":807,"ў":808,"џ":809,"Ѡ":810,"ѡ":811,"Ѣ":812,"ѣ":813,"Ѥ":814,"ѥ":815,"Ѧ":816,"ѧ":817,"Ѩ":818,"ѩ":819,"Ѫ":820,"ѫ":821,"Ѭ":822,"ѭ":823,"Ѯ":824,"ѯ":825,"Ѱ":826,"ѱ":827,"Ѳ":828,"ѳ":829,"Ѵ":830,"ѵ":831,"Ѷ":832,"ѷ":833,"Ѹ":834,"ѹ":835,"Ѻ":836,"ѻ":837,"Ѿ":838,"ѿ":839,"Ҁ":840,"ҁ":841,"҂":842,"҃":843,"҆":844,"Ҋ":845,"ҋ":846,"Ҍ":847,"ҍ":848,"Ґ":849,"ґ":850,"Ғ":851,"ғ":852,"Ҕ":853,"ҕ":854,"Җ":855,"җ":856,"Ҙ":857,"ҙ":858,"Қ":859,"қ":860,"Ҝ":861,"ҝ":862,"Ҟ":863,"ҟ":864,"Ҡ":865,"ҡ":866,"Ң":867,"ң":868,"Ҥ":869,"ҥ":870,"Ҧ":871,"ҧ":872,"Ҩ":873,"ҩ":874,"Ҫ":875,"ҫ":876,"Ҭ":877,"ҭ":878,"Ү":879,"ү":880,"Ұ":881,"ұ":882,"Ҳ":883,"ҳ":884,"Ҵ":885,"ҵ":886,"Ҷ":887,"ҷ":888,"Ҹ":889,"ҹ":890,"Һ":891,"һ":892,"Ҽ":893,"ҽ":894,"Ҿ":895,"ҿ":896,"Ӏ":897,"Ӂ":898,"ӂ":899,"Ӄ":900,"ӄ":901,"Ӆ":902,"ӆ":903,"Ӈ":904,"ӈ":905,"Ӌ":906,"ӌ":907,"ӏ":908,"Ӑ":909,"ӑ":910,"Ӓ":911,"ӓ":912,"Ӕ":913,"ӕ":914,"Ӗ":915,"ӗ":916,"Ә":917,"ә":918,"Ӛ":919,"ӛ":920,"Ӝ":921,"ӝ":922,"Ӟ":923,"ӟ":924,"Ӡ":925,"ӡ":926,"Ӣ":927,"ӣ":928,"Ӥ":929,"ӥ":930,"Ӧ":931,"ӧ":932,"Ө":933,"ө":934,"Ӫ":935,"ӫ":936,"ӭ":937,"Ӯ":938,"ӯ":939,"Ӱ":940,"ӱ":941,"Ӳ":942,"ӳ":943,"Ӵ":944,"ӵ":945,"Ӷ":946,"ӷ":947,"Ӹ":948,"ӹ":949,"Ӿ":950,"ӿ":951,"Ԁ":952,"ԑ":953,"Ԥ":954,"ԥ":955,"Ԩ":956,"Ա":957,"Բ":958,"Գ":959,"Դ":960,"Ե":961,"Զ":962,"Է":963,"Ը":964,"Թ":965,"Ժ":966,"Ի":967,"Լ":968,"Խ":969,"Ծ":970,"Կ":971,"Հ":972,"Ձ":973,"Ղ":974,"Ճ":975,"Մ":976,"Յ":977,"Ն":978,"Շ":979,"Ո":980,"Չ":981,"Պ":982,"Ջ":983,"Ռ":984,"Ս":985,"Վ":986,"Տ":987,"Ր":988,"Ց":989,"Ւ":990,"Փ":991,"Ք":992,"Օ":993,"Ֆ":994,"՞":995,"ա":996,"բ":997,"գ":998,"դ":999,"ե":1000,"զ":1001,"է":1002,"ը":1003,"թ":1004,"ժ":1005,"ի":1006,"լ":1007,"խ":1008,"ծ":1009,"կ":1010,"հ":1011,"ձ":1012,"ղ":1013,"ճ":1014,"մ":1015,"յ":1016,"ն":1017,"շ":1018,"ո":1019,"չ":1020,"պ":1021,"ջ":1022,"ռ":1023,"ս":1024,"վ":1025,"տ":1026,"ր":1027,"ց":1028,"ւ":1029,"փ":1030,"ք":1031,"օ":1032,"ֆ":1033,"։":1034,"֑":1035,"֔":1036,"֖":1037,"֛":1038,"֣":1039,"֥":1040,"֫":1041,"ְ":1042,"ֱ":1043,"ֲ":1044,"ֳ":1045,"ִ":1046,"ֵ":1047,"ֶ":1048,"ַ":1049,"ָ":1050,"ֹ":1051,"ֺ":1052,"ֻ":1053,"ּ":1054,"ֽ":1055,"־":1056,"ֿ":1057,"ׁ":1058,"ׂ":1059,"׃":1060,"ׇ":1061,"א":1062,"ב":1063,"ג":1064,"ד":1065,"ה":1066,"ו":1067,"ז":1068,"ח":1069,"ט":1070,"י":1071,"ך":1072,"כ":1073,"ל":1074,"ם":1075,"מ":1076,"ן":1077,"נ":1078,"ס":1079,"ע":1080,"ף":1081,"פ":1082,"ץ":1083,"צ":1084,"ק":1085,"ר":1086,"ש":1087,"ת":1088,"װ":1089,"ױ":1090,"ײ":1091,"׳":1092,"״":1093,"،":1094,"ؚ":1095,"؛":1096,"؟":1097,"ء":1098,"آ":1099,"أ":1100,"ؤ":1101,"إ":1102,"ئ":1103,"ا":1104,"ب":1105,"ة":1106,"ت":1107,"ث":1108,"ج":1109,"ح":1110,"خ":1111,"د":1112,"ذ":1113,"ر":1114,"ز":1115,"س":1116,"ش":1117,"ص":1118,"ض":1119,"ط":1120,"ظ":1121,"ع":1122,"غ":1123,"ـ":1124,"ف":1125,"ق":1126,"ك":1127,"ل":1128,"م":1129,"ن":1130,"ه":1131,"و":1132,"ى":1133,"ي":1134,"ً":1135,"ٌ":1136,"ٍ":1137,"َ":1138,"ُ":1139,"ِ":1140,"ّ":1141,"ْ":1142,"ٔ":1143,"ٕ":1144,"ٖ":1145,"ٜ":1146,"ٝ":1147,"٠":1148,"٢":1149,"٣":1150,"٤":1151,"٥":1152,"٦":1153,"٧":1154,"٨":1155,"٩":1156,"٫":1157,"٭":1158,"ٯ":1159,"ٰ":1160,"ٱ":1161,"ٲ":1162,"ٴ":1163,"ٹ":1164,"ٺ":1165,"ٻ":1166,"ټ":1167,"ٽ":1168,"پ":1169,"ڀ":1170,"ځ":1171,"ڄ":1172,"څ":1173,"چ":1174,"ڇ":1175,"ڈ":1176,"ډ":1177,"ڊ":1178,"ڌ":1179,"ڍ":1180,"ڑ":1181,"ړ":1182,"ڕ":1183,"ژ":1184,"ڙ":1185,"ښ":1186,"ڠ":1187,"ڡ":1188,"ڤ":1189,"ڨ":1190,"ک":1191,"ڪ":1192,"ګ":1193,"ڬ":1194,"ڭ":1195,"ڮ":1196,"گ":1197,"ڵ":1198,"ں":1199,"ڻ":1200,"ڼ":1201,"ھ":1202,"ۀ":1203,"ہ":1204,"ۂ":1205,"ۃ":1206,"ۄ":1207,"ۅ":1208,"ۆ":1209,"ۇ":1210,"ۈ":1211,"ۉ":1212,"ۊ":1213,"ۋ":1214,"ی":1215,"ۍ":1216,"ێ":1217,"ې":1218,"ے":1219,"ۓ":1220,"۔":1221,"ە":1222,"ۖ":1223,"ۗ":1224,"ۙ":1225,"ۚ":1226,"۞":1227,"۩":1228,"۰":1229,"۱":1230,"۲":1231,"۳":1232,"۴":1233,"۵":1234,"۶":1235,"۷":1236,"۸":1237,"۹":1238,"܃":1239,"܄":1240,"ܐ":1241,"ܒ":1242,"ܓ":1243,"ܕ":1244,"ܗ":1245,"ܘ":1246,"ܙ":1247,"ܚ":1248,"ܛ":1249,"ܜ":1250,"ܝ":1251,"ܟ":1252,"ܠ":1253,"ܡ":1254,"ܢ":1255,"ܣ":1256,"ܥ":1257,"ܦ":1258,"ܨ":1259,"ܩ":1260,"ܪ":1261,"ܫ":1262,"ܬ":1263,"ܲ":1264,"ܵ":1265,"ܼ":1266,"ܿ":1267,"ݙ":1268,"ݢ":1269,"ݨ":1270,"ހ":1271,"ށ":1272,"ނ":1273,"ރ":1274,"ބ":1275,"ޅ":1276,"ކ":1277,"އ":1278,"ވ":1279,"މ":1280,"ފ":1281,"ދ":1282,"ތ":1283,"ލ":1284,"ގ":1285,"ސ":1286,"ޑ":1287,"ޒ":1288,"ޓ":1289,"ޔ":1290,"ޕ":1291,"ޖ":1292,"ޗ":1293,"ޙ":1294,"ޚ":1295,"ޝ":1296,"ޞ":1297,"ޠ":1298,"ޢ":1299,"ޤ":1300,"ަ":1301,"ާ":1302,"ި":1303,"ީ":1304,"ު":1305,"ޫ":1306,"ެ":1307,"ޭ":1308,"ޮ":1309,"ޯ":1310,"ް":1311,"߁":1312,"߂":1313,"࣮":1314,"ँ":1315,"ं":1316,"ः":1317,"अ":1318,"आ":1319,"इ":1320,"ई":1321,"उ":1322,"ऊ":1323,"ऋ":1324,"ऌ":1325,"ए":1326,"ऐ":1327,"ऑ":1328,"ओ":1329,"औ":1330,"क":1331,"ख":1332,"ग":1333,"घ":1334,"ङ":1335,"च":1336,"छ":1337,"ज":1338,"झ":1339,"ञ":1340,"ट":1341,"ठ":1342,"ड":1343,"ढ":1344,"ण":1345,"त":1346,"थ":1347,"द":1348,"ध":1349,"न":1350,"ऩ":1351,"प":1352,"फ":1353,"ब":1354,"भ":1355,"म":1356,"य":1357,"र":1358,"ऱ":1359,"ल":1360,"ळ":1361,"ऴ":1362,"व":1363,"श":1364,"ष":1365,"स":1366,"ह":1367,"़":1368,"ा":1369,"ि":1370,"ी":1371,"ु":1372,"ू":1373,"ृ":1374,"ॄ":1375,"ॅ":1376,"े":1377,"ै":1378,"ॉ":1379,"ॊ":1380,"ो":1381,"ौ":1382,"्":1383,"ॐ":1384,"॒":1385,"ॠ":1386,"ॡ":1387,"।":1388,"॥":1389,"०":1390,"१":1391,"२":1392,"३":1393,"४":1394,"५":1395,"६":1396,"७":1397,"८":1398,"९":1399,"॰":1400,"ॳ":1401,"ॴ":1402,"ॵ":1403,"ॶ":1404,"ॷ":1405,"ॻ":1406,"ॼ":1407,"ॾ":1408,"ॿ":1409,"ঁ":1410,"ং":1411,"অ":1412,"আ":1413,"ই":1414,"ঈ":1415,"উ":1416,"ঊ":1417,"এ":1418,"ও":1419,"ঔ":1420,"ক":1421,"খ":1422,"গ":1423,"ঘ":1424,"ঙ":1425,"চ":1426,"ছ":1427,"জ":1428,"ঝ":1429,"ঞ":1430,"ট":1431,"ঠ":1432,"ড":1433,"ঢ":1434,"ণ":1435,"ত":1436,"থ":1437,"দ":1438,"ধ":1439,"ন":1440,"প":1441,"ফ":1442,"ব":1443,"ভ":1444,"ম":1445,"য":1446,"র":1447,"ল":1448,"শ":1449,"ষ":1450,"স":1451,"হ":1452,"়":1453,"া":1454,"ি":1455,"ী":1456,"ু":1457,"ূ":1458,"ৃ":1459,"ে":1460,"ৈ":1461,"ো":1462,"ৌ":1463,"্":1464,"ৎ":1465,"০":1466,"১":1467,"২":1468,"৩":1469,"৮":1470,"৯":1471,"ৰ":1472,"ৱ":1473,"৲":1474,"৳":1475,"ਂ":1476,"ਃ":1477,"ਅ":1478,"ਆ":1479,"ਇ":1480,"ਈ":1481,"ਉ":1482,"ਊ":1483,"ਐ":1484,"ਕ":1485,"ਖ":1486,"ਗ":1487,"ਘ":1488,"ਚ":1489,"ਜ":1490,"ਝ":1491,"ਟ":1492,"ਠ":1493,"ਡ":1494,"ਣ":1495,"ਤ":1496,"ਥ":1497,"ਦ":1498,"ਧ":1499,"ਨ":1500,"ਪ":1501,"ਫ":1502,"ਬ":1503,"ਭ":1504,"ਮ":1505,"ਯ":1506,"ਰ":1507,"ਲ":1508,"ਵ":1509,"ਸ":1510,"ਹ":1511,"਼":1512,"ਾ":1513,"ਿ":1514,"ੀ":1515,"ੁ":1516,"ੂ":1517,"ੇ":1518,"ੈ":1519,"ੋ":1520,"ੌ":1521,"੍":1522,"ੜ":1523,"੦":1524,"੬":1525,"੯":1526,"ੰ":1527,"ੱ":1528,"ੲ":1529,"ੳ":1530,"ੴ":1531,"ં":1532,"અ":1533,"આ":1534,"ઇ":1535,"ઈ":1536,"ઉ":1537,"ઊ":1538,"ઋ":1539,"ઍ":1540,"ઑ":1541,"ઓ":1542,"ક":1543,"ખ":1544,"ગ":1545,"ઘ":1546,"ઙ":1547,"ચ":1548,"છ":1549,"જ":1550,"ઞ":1551,"ટ":1552,"ઠ":1553,"ડ":1554,"ઢ":1555,"ણ":1556,"ત":1557,"થ":1558,"દ":1559,"ધ":1560,"ન":1561,"પ":1562,"ફ":1563,"બ":1564,"ભ":1565,"મ":1566,"ય":1567,"ર":1568,"લ":1569,"ળ":1570,"વ":1571,"શ":1572,"ષ":1573,"સ":1574,"હ":1575,"ા":1576,"િ":1577,"ી":1578,"ુ":1579,"ૂ":1580,"ૃ":1581,"ે":1582,"ૈ":1583,"ો":1584,"્":1585,"ૠ":1586,"૦":1587,"૬":1588,"૯":1589,"૱":1590,"ଂ":1591,"ଅ":1592,"ଆ":1593,"ଉ":1594,"ଓ":1595,"କ":1596,"ଖ":1597,"ଗ":1598,"ଙ":1599,"ଚ":1600,"ଜ":1601,"ଝ":1602,"ଟ":1603,"ଠ":1604,"ଡ":1605,"ଣ":1606,"ତ":1607,"ଥ":1608,"ଦ":1609,"ନ":1610,"ପ":1611,"ବ":1612,"ଭ":1613,"ମ":1614,"ଯ":1615,"ର":1616,"ଲ":1617,"ଳ":1618,"ଶ":1619,"ସ":1620,"ହ":1621,"଼":1622,"ା":1623,"ି":1624,"ୀ":1625,"ୁ":1626,"େ":1627,"ୋ":1628,"୍":1629,"ୟ":1630,"ୱ":1631,"ஃ":1632,"அ":1633,"ஆ":1634,"இ":1635,"ஈ":1636,"உ":1637,"ஊ":1638,"எ":1639,"ஏ":1640,"ஐ":1641,"ஒ":1642,"ஓ":1643,"ஔ":1644,"க":1645,"ங":1646,"ச":1647,"ஜ":1648,"ஞ":1649,"ட":1650,"ண":1651,"த":1652,"ந":1653,"ன":1654,"ப":1655,"ம":1656,"ய":1657,"ர":1658,"ற":1659,"ல":1660,"ள":1661,"ழ":1662,"வ":1663,"ஶ":1664,"ஷ":1665,"ஸ":1666,"ஹ":1667,"ா":1668,"ி":1669,"ீ":1670,"ு":1671,"ூ":1672,"ெ":1673,"ே":1674,"ை":1675,"ொ":1676,"ோ":1677,"ௌ":1678,"்":1679,"௧":1680,"௹":1681,"ఁ":1682,"ం":1683,"అ":1684,"ఆ":1685,"ఇ":1686,"ఉ":1687,"ఋ":1688,"ఌ":1689,"ఏ":1690,"ఒ":1691,"క":1692,"ఖ":1693,"గ":1694,"ఘ":1695,"ఙ":1696,"చ":1697,"ఛ":1698,"జ":1699,"ఝ":1700,"ఞ":1701,"ట":1702,"డ":1703,"ణ":1704,"త":1705,"థ":1706,"ద":1707,"ధ":1708,"న":1709,"ప":1710,"ఫ":1711,"బ":1712,"భ":1713,"మ":1714,"య":1715,"ర":1716,"ఱ":1717,"ల":1718,"ళ":1719,"వ":1720,"శ":1721,"ష":1722,"స":1723,"హ":1724,"ా":1725,"ి":1726,"ీ":1727,"ు":1728,"ూ":1729,"ృ":1730,"ౄ":1731,"ె":1732,"ే":1733,"ై":1734,"ొ":1735,"ో":1736,"ౌ":1737,"్":1738,"ౘ":1739,"ౙ":1740,"ౠ":1741,"ౡ":1742,"౦":1743,"౬":1744,"౯":1745,"ಂ":1746,"ಅ":1747,"ಆ":1748,"ಇ":1749,"ಋ":1750,"ಌ":1751,"ಎ":1752,"ಏ":1753,"ಐ":1754,"ಒ":1755,"ಕ":1756,"ಖ":1757,"ಗ":1758,"ಘ":1759,"ಙ":1760,"ಚ":1761,"ಜ":1762,"ಝ":1763,"ಟ":1764,"ಠ":1765,"ಡ":1766,"ಣ":1767,"ತ":1768,"ಥ":1769,"ದ":1770,"ಧ":1771,"ನ":1772,"ಪ":1773,"ಫ":1774,"ಬ":1775,"ಭ":1776,"ಮ":1777,"ಯ":1778,"ರ":1779,"ಱ":1780,"ಲ":1781,"ಳ":1782,"ವ":1783,"ಶ":1784,"ಷ":1785,"ಸ":1786,"ಹ":1787,"ಾ":1788,"ಿ":1789,"ೀ":1790,"ು":1791,"ೂ":1792,"ೃ":1793,"ೄ":1794,"ೆ":1795,"ೇ":1796,"ೈ":1797,"ೊ":1798,"ೋ":1799,"ೌ":1800,"್":1801,"ೞ":1802,"ೠ":1803,"ೡ":1804,"೦":1805,"೬":1806,"೯":1807,"ം":1808,"അ":1809,"ആ":1810,"ഇ":1811,"ഉ":1812,"എ":1813,"ഏ":1814,"ഓ":1815,"ക":1816,"ഖ":1817,"ഗ":1818,"ങ":1819,"ച":1820,"ഛ":1821,"ജ":1822,"ഞ":1823,"ട":1824,"ഡ":1825,"ണ":1826,"ത":1827,"ദ":1828,"ധ":1829,"ന":1830,"പ":1831,"ഫ":1832,"ബ":1833,"മ":1834,"യ":1835,"ര":1836,"റ":1837,"ല":1838,"ള":1839,"ഴ":1840,"വ":1841,"ശ":1842,"ഷ":1843,"സ":1844,"ഹ":1845,"ാ":1846,"ി":1847,"ീ":1848,"ു":1849,"ൂ":1850,"ൃ":1851,"െ":1852,"േ":1853,"ൈ":1854,"ൊ":1855,"ോ":1856,"്":1857,"ൻ":1858,"ർ":1859,"ൽ":1860,"ൾ":1861,"ං":1862,"අ":1863,"ආ":1864,"ඉ":1865,"ඊ":1866,"උ":1867,"ඌ":1868,"එ":1869,"ක":1870,"ඛ":1871,"ග":1872,"ඟ":1873,"ච":1874,"ජ":1875,"ඤ":1876,"ට":1877,"ඨ":1878,"ඩ":1879,"ණ":1880,"ත":1881,"ථ":1882,"ද":1883,"ධ":1884,"න":1885,"ඳ":1886,"ප":1887,"ඵ":1888,"බ":1889,"භ":1890,"ම":1891,"ඹ":1892,"ය":1893,"ර":1894,"ල":1895,"ව":1896,"ශ":1897,"ෂ":1898,"ස":1899,"හ":1900,"ළ":1901,"ෆ":1902,"්":1903,"ා":1904,"ැ":1905,"ෑ":1906,"ි":1907,"ී":1908,"ු":1909,"ූ":1910,"ෙ":1911,"ේ":1912,"ෛ":1913,"ො":1914,"ෝ":1915,"ก":1916,"ข":1917,"ฃ":1918,"ค":1919,"ฅ":1920,"ฆ":1921,"ง":1922,"จ":1923,"ฉ":1924,"ช":1925,"ซ":1926,"ฌ":1927,"ญ":1928,"ฎ":1929,"ฏ":1930,"ฐ":1931,"ฑ":1932,"ฒ":1933,"ณ":1934,"ด":1935,"ต":1936,"ถ":1937,"ท":1938,"ธ":1939,"น":1940,"บ":1941,"ป":1942,"ผ":1943,"ฝ":1944,"พ":1945,"ฟ":1946,"ภ":1947,"ม":1948,"ย":1949,"ร":1950,"ฤ":1951,"ล":1952,"ว":1953,"ศ":1954,"ษ":1955,"ส":1956,"ห":1957,"ฬ":1958,"อ":1959,"ฮ":1960,"ฯ":1961,"ะ":1962,"ั":1963,"า":1964,"ิ":1965,"ี":1966,"ึ":1967,"ื":1968,"ุ":1969,"ู":1970,"ฺ":1971,"฿":1972,"เ":1973,"แ":1974,"โ":1975,"ใ":1976,"ไ":1977,"ๅ":1978,"ๆ":1979,"็":1980,"่":1981,"้":1982,"๊":1983,"๋":1984,"์":1985,"ํ":1986,"๐":1987,"๑":1988,"๒":1989,"๓":1990,"๔":1991,"๕":1992,"๖":1993,"๗":1994,"๘":1995,"๙":1996,"๛":1997,"ກ":1998,"ຂ":1999,"ຄ":2000,"ງ":2001,"ຈ":2002,"ຊ":2003,"ຍ":2004,"ດ":2005,"ຕ":2006,"ຖ":2007,"ທ":2008,"ນ":2009,"ບ":2010,"ປ":2011,"ຜ":2012,"ຝ":2013,"ພ":2014,"ຟ":2015,"ມ":2016,"ຢ":2017,"ຣ":2018,"ລ":2019,"ວ":2020,"ສ":2021,"ຫ":2022,"ອ":2023,"ຮ":2024,"ະ":2025,"ັ":2026,"າ":2027,"ິ":2028,"ີ":2029,"ຶ":2030,"ື":2031,"ຸ":2032,"ູ":2033,"ົ":2034,"ຼ":2035,"ຽ":2036,"ເ":2037,"ແ":2038,"ໂ":2039,"ໃ":2040,"ໄ":2041,"່":2042,"້":2043,"໊":2044,"໋":2045,"໌":2046,"ໍ":2047,"໒":2048,"༆":2049,"་":2050,"།":2051,"ཀ":2052,"ཁ":2053,"ག":2054,"ང":2055,"ཅ":2056,"ཆ":2057,"ཇ":2058,"ཉ":2059,"ཊ":2060,"ཋ":2061,"ཌ":2062,"ཎ":2063,"ཏ":2064,"ཐ":2065,"ད":2066,"ན":2067,"པ":2068,"ཕ":2069,"བ":2070,"མ":2071,"ཙ":2072,"ཚ":2073,"ཛ":2074,"ཝ":2075,"ཞ":2076,"ཟ":2077,"འ":2078,"ཡ":2079,"ར":2080,"ལ":2081,"ཤ":2082,"ཥ":2083,"ས":2084,"ཧ":2085,"ཨ":2086,"ཱ":2087,"ི":2088,"ུ":2089,"ེ":2090,"ཻ":2091,"ོ":2092,"ཾ":2093,"ཿ":2094,"ྃ":2095,"ྐ":2096,"ྒ":2097,"ྔ":2098,"ྕ":2099,"ྗ":2100,"ྙ":2101,"ྜ":2102,"ྟ":2103,"ྡ":2104,"ྣ":2105,"ྤ":2106,"ྦ":2107,"ྨ":2108,"ྩ":2109,"ྫ":2110,"ྭ":2111,"ྰ":2112,"ྱ":2113,"ྲ":2114,"ླ":2115,"ྷ":2116,"࿇":2117,"࿖":2118,"က":2119,"ခ":2120,"ဂ":2121,"င":2122,"စ":2123,"ဆ":2124,"ဇ":2125,"ဈ":2126,"ဉ":2127,"ည":2128,"ဋ":2129,"ဌ":2130,"ဍ":2131,"ဏ":2132,"တ":2133,"ထ":2134,"ဒ":2135,"ဓ":2136,"န":2137,"ပ":2138,"ဖ":2139,"ဗ":2140,"ဘ":2141,"မ":2142,"ယ":2143,"ရ":2144,"လ":2145,"ဝ":2146,"သ":2147,"ဟ":2148,"ဠ":2149,"အ":2150,"ဥ":2151,"ဦ":2152,"ဧ":2153,"ဨ":2154,"ါ":2155,"ာ":2156,"ိ":2157,"ီ":2158,"ု":2159,"ူ":2160,"ေ":2161,"ဲ":2162,"ဳ":2163,"ဴ":2164,"ဵ":2165,"ံ":2166,"့":2167,"း":2168,"္":2169,"်":2170,"ျ":2171,"ြ":2172,"ွ":2173,"ှ":2174,"၀":2175,"၁":2176,"၂":2177,"၄":2178,"၅":2179,"၆":2180,"၈":2181,"၉":2182,"၊":2183,"။":2184,"၏":2185,"ၚ":2186,"ၛ":2187,"ၜ":2188,"ၝ":2189,"ၞ":2190,"ၟ":2191,"ၠ":2192,"ၲ":2193,"ၵ":2194,"ၶ":2195,"ၸ":2196,"ၺ":2197,"ၼ":2198,"ႁ":2199,"ႏ":2200,"Ⴀ":2201,"Ⴁ":2202,"Ⴂ":2203,"Ⴃ":2204,"Ⴄ":2205,"Ⴅ":2206,"Ⴇ":2207,"Ⴈ":2208,"Ⴉ":2209,"Ⴊ":2210,"Ⴋ":2211,"Ⴌ":2212,"Ⴍ":2213,"Ⴎ":2214,"Ⴐ":2215,"Ⴑ":2216,"Ⴒ":2217,"Ⴓ":2218,"Ⴔ":2219,"Ⴕ":2220,"Ⴖ":2221,"Ⴗ":2222,"Ⴙ":2223,"Ⴚ":2224,"Ⴡ":2225,"Ⴢ":2226,"Ⴣ":2227,"Ⴥ":2228,"ა":2229,"ბ":2230,"გ":2231,"დ":2232,"ე":2233,"ვ":2234,"ზ":2235,"თ":2236,"ი":2237,"კ":2238,"ლ":2239,"მ":2240,"ნ":2241,"ო":2242,"პ":2243,"ჟ":2244,"რ":2245,"ს":2246,"ტ":2247,"უ":2248,"ფ":2249,"ქ":2250,"ღ":2251,"ყ":2252,"შ":2253,"ჩ":2254,"ც":2255,"ძ":2256,"წ":2257,"ჭ":2258,"ხ":2259,"ჯ":2260,"ჰ":2261,"ჱ":2262,"ᄀ":2263,"ᄁ":2264,"ᄂ":2265,"ᄃ":2266,"ᄄ":2267,"ᄅ":2268,"ᄆ":2269,"ᄇ":2270,"ᄈ":2271,"ᄉ":2272,"ᄊ":2273,"ᄋ":2274,"ᄌ":2275,"ᄍ":2276,"ᄎ":2277,"ᄏ":2278,"ᄐ":2279,"ᄑ":2280,"ᄒ":2281,"ᄔ":2282,"ᄕ":2283,"ᄙ":2284,"ᄚ":2285,"ᄛ":2286,"ᄝ":2287,"ᄞ":2288,"ᄠ":2289,"ᄡ":2290,"ᄢ":2291,"ᄣ":2292,"ᄥ":2293,"ᄧ":2294,"ᄩ":2295,"ᄫ":2296,"ᄬ":2297,"ᄭ":2298,"ᄮ":2299,"ᄯ":2300,"ᄲ":2301,"ᄴ":2302,"ᄶ":2303,"ᄸ":2304,"ᄻ":2305,"ᄼ":2306,"ᄽ":2307,"ᄾ":2308,"ᄿ":2309,"ᅀ":2310,"ᅄ":2311,"ᅇ":2312,"ᅋ":2313,"ᅌ":2314,"ᅎ":2315,"ᅏ":2316,"ᅐ":2317,"ᅑ":2318,"ᅒ":2319,"ᅔ":2320,"ᅕ":2321,"ᅗ":2322,"ᅘ":2323,"ᅙ":2324,"ᅟ":2325,"ᅠ":2326,"ᅡ":2327,"ᅢ":2328,"ᅣ":2329,"ᅤ":2330,"ᅥ":2331,"ᅦ":2332,"ᅧ":2333,"ᅨ":2334,"ᅩ":2335,"ᅪ":2336,"ᅫ":2337,"ᅬ":2338,"ᅭ":2339,"ᅮ":2340,"ᅯ":2341,"ᅰ":2342,"ᅱ":2343,"ᅲ":2344,"ᅳ":2345,"ᅴ":2346,"ᅵ":2347,"ᅶ":2348,"ᅷ":2349,"ᅸ":2350,"ᅹ":2351,"ᅺ":2352,"ᅻ":2353,"ᅼ":2354,"ᅽ":2355,"ᅾ":2356,"ᅿ":2357,"ᆀ":2358,"ᆁ":2359,"ᆂ":2360,"ᆃ":2361,"ᆄ":2362,"ᆅ":2363,"ᆆ":2364,"ᆇ":2365,"ᆈ":2366,"ᆉ":2367,"ᆊ":2368,"ᆋ":2369,"ᆌ":2370,"ᆍ":2371,"ᆎ":2372,"ᆏ":2373,"ᆐ":2374,"ᆑ":2375,"ᆒ":2376,"ᆓ":2377,"ᆔ":2378,"ᆕ":2379,"ᆖ":2380,"ᆗ":2381,"ᆚ":2382,"ᆛ":2383,"ᆜ":2384,"ᆝ":2385,"ᆞ":2386,"ᆟ":2387,"ᆠ":2388,"ᆡ":2389,"ᆢ":2390,"ᆨ":2391,"ᆪ":2392,"ᆫ":2393,"ᆬ":2394,"ᆭ":2395,"ᆯ":2396,"ᆰ":2397,"ᆱ":2398,"ᆲ":2399,"ᆳ":2400,"ᆴ":2401,"ᆵ":2402,"ᆷ":2403,"ᆺ":2404,"ᆼ":2405,"ᇂ":2406,"ᇇ":2407,"ᇈ":2408,"ᇌ":2409,"ᇓ":2410,"ᇕ":2411,"ᇗ":2412,"ᇙ":2413,"ᇚ":2414,"ᇝ":2415,"ᇢ":2416,"ᇫ":2417,"ᇰ":2418,"ᇱ":2419,"ᇲ":2420,"ሀ":2421,"ሁ":2422,"ሂ":2423,"ሃ":2424,"ሄ":2425,"ህ":2426,"ሆ":2427,"ለ":2428,"ሉ":2429,"ሊ":2430,"ላ":2431,"ሌ":2432,"ል":2433,"ሎ":2434,"ሐ":2435,"ሒ":2436,"ሓ":2437,"ሔ":2438,"ሕ":2439,"መ":2440,"ሙ":2441,"ማ":2442,"ሜ":2443,"ም":2444,"ሞ":2445,"ሠ":2446,"ሣ":2447,"ሥ":2448,"ረ":2449,"ሩ":2450,"ሪ":2451,"ራ":2452,"ሬ":2453,"ር":2454,"ሮ":2455,"ሰ":2456,"ሱ":2457,"ሲ":2458,"ሳ":2459,"ሴ":2460,"ስ":2461,"ሶ":2462,"ሸ":2463,"ሺ":2464,"ሻ":2465,"ሽ":2466,"ሾ":2467,"ቀ":2468,"ቁ":2469,"ቄ":2470,"ቅ":2471,"ቆ":2472,"ቐ":2473,"በ":2474,"ቡ":2475,"ቢ":2476,"ባ":2477,"ቤ":2478,"ብ":2479,"ቦ":2480,"ቨ":2481,"ተ":2482,"ቱ":2483,"ቲ":2484,"ታ":2485,"ቴ":2486,"ት":2487,"ቶ":2488,"ቸ":2489,"ች":2490,"ኃ":2491,"ኅ":2492,"ነ":2493,"ኒ":2494,"ና":2495,"ኔ":2496,"ን":2497,"ኖ":2498,"ኙ":2499,"ኛ":2500,"ኝ":2501,"ኞ":2502,"አ":2503,"ኡ":2504,"ኢ":2505,"ኣ":2506,"ኤ":2507,"እ":2508,"ኦ":2509,"ከ":2510,"ካ":2511,"ክ":2512,"ኵ":2513,"ኻ":2514,"ወ":2515,"ዊ":2516,"ዋ":2517,"ው":2518,"ዎ":2519,"ዐ":2520,"ዓ":2521,"ዕ":2522,"ዘ":2523,"ዙ":2524,"ዚ":2525,"ዛ":2526,"ዜ":2527,"ዝ":2528,"ዞ":2529,"ዥ":2530,"የ":2531,"ዩ":2532,"ያ":2533,"ይ":2534,"ዮ":2535,"ደ":2536,"ዱ":2537,"ዲ":2538,"ዳ":2539,"ዴ":2540,"ድ":2541,"ዶ":2542,"ጀ":2543,"ጂ":2544,"ጃ":2545,"ጅ":2546,"ገ":2547,"ጉ":2548,"ጊ":2549,"ጋ":2550,"ጌ":2551,"ግ":2552,"ጎ":2553,"ጔ":2554,"ጠ":2555,"ጣ":2556,"ጤ":2557,"ጥ":2558,"ጦ":2559,"ጨ":2560,"ጫ":2561,"ጳ":2562,"ጵ":2563,"ጸ":2564,"ጻ":2565,"ጽ":2566,"ፅ":2567,"ፈ":2568,"ፊ":2569,"ፋ":2570,"ፌ":2571,"ፍ":2572,"ፎ":2573,"ፐ":2574,"ፓ":2575,"ፔ":2576,"ፕ":2577,"፡":2578,"Ꭰ":2579,"Ꭱ":2580,"Ꭲ":2581,"Ꭳ":2582,"Ꭴ":2583,"Ꭵ":2584,"Ꭶ":2585,"Ꭸ":2586,"Ꭹ":2587,"Ꭻ":2588,"Ꭼ":2589,"Ꭿ":2590,"Ꮃ":2591,"Ꮅ":2592,"Ꮎ":2593,"Ꮑ":2594,"Ꮒ":2595,"Ꮗ":2596,"Ꮙ":2597,"Ꮝ":2598,"Ꮞ":2599,"Ꮟ":2600,"Ꮤ":2601,"Ꮥ":2602,"Ꮧ":2603,"Ꮲ":2604,"Ꮳ":2605,"Ꮵ":2606,"Ꮹ":2607,"Ꮻ":2608,"Ꮼ":2609,"Ꮽ":2610,"Ꮿ":2611,"Ᏸ":2612,"Ᏹ":2613,"Ᏼ":2614,"ᐁ":2615,"ᐃ":2616,"ᐅ":2617,"ᐆ":2618,"ᐊ":2619,"ᐏ":2620,"ᐘ":2621,"ᐠ":2622,"ᐢ":2623,"ᐤ":2624,"ᐦ":2625,"ᐧ":2626,"ᐩ":2627,"ᐯ":2628,"ᐱ":2629,"ᐳ":2630,"ᐸ":2631,"ᑌ":2632,"ᑎ":2633,"ᑐ":2634,"ᑕ":2635,"ᑖ":2636,"ᑦ":2637,"ᑭ":2638,"ᑯ":2639,"ᑲ":2640,"ᑳ":2641,"ᒃ":2642,"ᒋ":2643,"ᒥ":2644,"ᒧ":2645,"ᒨ":2646,"ᒪ":2647,"ᒫ":2648,"ᒻ":2649,"ᒼ":2650,"ᓀ":2651,"ᓂ":2652,"ᓃ":2653,"ᓄ":2654,"ᓇ":2655,"ᓈ":2656,"ᓐ":2657,"ᓕ":2658,"ᓗ":2659,"ᓘ":2660,"ᓛ":2661,"ᓪ":2662,"ᓯ":2663,"ᓱ":2664,"ᓲ":2665,"ᓴ":2666,"ᓵ":2667,"ᔐ":2668,"ᔑ":2669,"ᔪ":2670,"ᕂ":2671,"ᕄ":2672,"ᕆ":2673,"ᕇ":2674,"ᕈ":2675,"ᕋ":2676,"ᕐ":2677,"ᕓ":2678,"ᕕ":2679,"ᕗ":2680,"ᕙ":2681,"ᕝ":2682,"ᕿ":2683,"ᖃ":2684,"ᖅ":2685,"ᖏ":2686,"ᖓ":2687,"ᖖ":2688,"ᖽ":2689,"ᖿ":2690,"ᘔ":2691,"ᙱ":2692,"ᙳ":2693,"ᙵ":2694,"᚛":2695,"᚜":2696,"ᚠ":2697,"ᚢ":2698,"ᚣ":2699,"ᚦ":2700,"ᚨ":2701,"ᚩ":2702,"ᚫ":2703,"ᚱ":2704,"ᚲ":2705,"ᚳ":2706,"ᚴ":2707,"ᚷ":2708,"ᚹ":2709,"ᚺ":2710,"ᚻ":2711,"ᚼ":2712,"ᚾ":2713,"ᛁ":2714,"ᛃ":2715,"ᛄ":2716,"ᛅ":2717,"ᛇ":2718,"ᛉ":2719,"ᛊ":2720,"ᛋ":2721,"ᛏ":2722,"ᛐ":2723,"ᛒ":2724,"ᛖ":2725,"ᛗ":2726,"ᛚ":2727,"ᛝ":2728,"ᛞ":2729,"ᛟ":2730,"ᛠ":2731,"ᛦ":2732,"᛭":2733,"ᛯ":2734,"ក":2735,"ខ":2736,"គ":2737,"ឃ":2738,"ង":2739,"ច":2740,"ឆ":2741,"ជ":2742,"ឈ":2743,"ញ":2744,"ដ":2745,"ឋ":2746,"ឌ":2747,"ឍ":2748,"ណ":2749,"ត":2750,"ថ":2751,"ទ":2752,"ធ":2753,"ន":2754,"ប":2755,"ផ":2756,"ព":2757,"ភ":2758,"ម":2759,"យ":2760,"រ":2761,"ល":2762,"វ":2763,"ឝ":2764,"ស":2765,"ហ":2766,"ឡ":2767,"អ":2768,"ឥ":2769,"ឧ":2770,"ឪ":2771,"ឫ":2772,"ឬ":2773,"ឱ":2774,"឵":2775,"ា":2776,"ិ":2777,"ី":2778,"ឹ":2779,"ុ":2780,"ូ":2781,"ួ":2782,"ើ":2783,"ឿ":2784,"ៀ":2785,"េ":2786,"ែ":2787,"ៃ":2788,"ោ":2789,"ៅ":2790,"ំ":2791,"ះ":2792,"៉":2793,"៊":2794,"់":2795,"៌":2796,"៍":2797,"័":2798,"្":2799,"។":2800,"៛":2801,"០":2802,"១":2803,"២":2804,"៣":2805,"៥":2806,"៦":2807,"៧":2808,"៨":2809,"៩":2810,"᠇":2811,"᠊":2812,"᠋":2813,"᠌":2814,"᠍":2815,"ᠠ":2816,"ᠡ":2817,"ᠢ":2818,"ᠣ":2819,"ᠤ":2820,"ᠥ":2821,"ᠦ":2822,"ᠧ":2823,"ᠨ":2824,"ᠩ":2825,"ᠪ":2826,"ᠫ":2827,"ᠬ":2828,"ᠭ":2829,"ᠮ":2830,"ᠯ":2831,"ᠰ":2832,"ᠱ":2833,"ᠲ":2834,"ᠳ":2835,"ᠴ":2836,"ᠵ":2837,"ᠶ":2838,"ᠷ":2839,"ᠸ":2840,"ᠺ":2841,"ᠻ":2842,"ᠼ":2843,"ᠽ":2844,"ᠿ":2845,"ᡁ":2846,"ᡂ":2847,"ᡍ":2848,"ᡝ":2849,"ᡞ":2850,"ᡟ":2851,"ᡠ":2852,"ᡡ":2853,"ᡣ":2854,"ᡤ":2855,"ᡥ":2856,"ᡦ":2857,"ᡧ":2858,"ᡨ":2859,"ᡩ":2860,"ᡫ":2861,"ᡬ":2862,"ᡭ":2863,"ᡯ":2864,"ᡰ":2865,"ᡳ":2866,"ᡴ":2867,"ᡵ":2868,"ᡶ":2869,"ᡷ":2870,"ᤌ":2871,"ᤐ":2872,"ᤕ":2873,"ᤠ":2874,"ᤢ":2875,"ᤰ":2876,"ᤱ":2877,"ᤴ":2878,"ᨁ":2879,"ᨅ":2880,"ᨔ":2881,"ᨕ":2882,"ᨗ":2883,"ᨘ":2884,"ᮊ":2885,"ᮏ":2886,"ᮔ":2887,"ᮜ":2888,"ᮝ":2889,"ᮥ":2890,"ᮧ":2891,"᮪":2892,"ᴀ":2893,"ᴅ":2894,"ᴇ":2895,"ᴋ":2896,"ᴍ":2897,"ᴗ":2898,"ᴘ":2899,"ᴛ":2900,"ᵴ":2901,"ᵵ":2902,"ᵶ":2903,"ᵹ":2904,"ᵻ":2905,"ᶑ":2906,"᷄":2907,"᷅":2908,"᷆":2909,"᷉":2910,"Ḁ":2911,"ḁ":2912,"Ḃ":2913,"ḃ":2914,"ḅ":2915,"ḇ":2916,"Ḋ":2917,"ḋ":2918,"Ḍ":2919,"ḍ":2920,"Ḏ":2921,"ḏ":2922,"Ḑ":2923,"ḑ":2924,"ḓ":2925,"ḕ":2926,"Ḗ":2927,"ḗ":2928,"ḙ":2929,"ḛ":2930,"Ḟ":2931,"ḟ":2932,"Ḡ":2933,"ḡ":2934,"Ḣ":2935,"ḣ":2936,"Ḥ":2937,"ḥ":2938,"Ḧ":2939,"ḧ":2940,"Ḩ":2941,"ḩ":2942,"Ḫ":2943,"ḫ":2944,"ḭ":2945,"ḱ":2946,"Ḳ":2947,"ḳ":2948,"Ḵ":2949,"ḵ":2950,"ḷ":2951,"ḹ":2952,"ḻ":2953,"Ḿ":2954,"ḿ":2955,"Ṁ":2956,"ṁ":2957,"Ṃ":2958,"ṃ":2959,"ṅ":2960,"Ṇ":2961,"ṇ":2962,"ṉ":2963,"ṍ":2964,"ṑ":2965,"ṓ":2966,"Ṕ":2967,"ṕ":2968,"Ṗ":2969,"ṗ":2970,"Ṙ":2971,"ṙ":2972,"Ṛ":2973,"ṛ":2974,"ṝ":2975,"ṟ":2976,"Ṡ":2977,"ṡ":2978,"Ṣ":2979,"ṣ":2980,"Ṫ":2981,"ṫ":2982,"Ṭ":2983,"ṭ":2984,"Ṯ":2985,"ṯ":2986,"ṱ":2987,"ṳ":2988,"ṵ":2989,"ṷ":2990,"ṻ":2991,"ṽ":2992,"Ẁ":2993,"ẁ":2994,"Ẃ":2995,"ẃ":2996,"Ẅ":2997,"ẅ":2998,"ẇ":2999,"Ẋ":3000,"ẋ":3001,"Ẍ":3002,"ẍ":3003,"Ẏ":3004,"ẏ":3005,"Ẑ":3006,"ẑ":3007,"Ẓ":3008,"ẓ":3009,"ẕ":3010,"ẖ":3011,"ẗ":3012,"ẙ":3013,"ẞ":3014,"Ạ":3015,"ạ":3016,"Ả":3017,"ả":3018,"Ấ":3019,"ấ":3020,"ầ":3021,"Ẩ":3022,"ẩ":3023,"Ẫ":3024,"ẫ":3025,"ậ":3026,"ắ":3027,"ằ":3028,"ẳ":3029,"ẵ":3030,"ặ":3031,"Ẹ":3032,"ẹ":3033,"ẻ":3034,"Ẽ":3035,"ẽ":3036,"Ế":3037,"ế":3038,"ề":3039,"ể":3040,"ễ":3041,"ệ":3042,"Ỉ":3043,"ỉ":3044,"Ị":3045,"ị":3046,"Ọ":3047,"ọ":3048,"ỏ":3049,"Ố":3050,"ố":3051,"ồ":3052,"ổ":3053,"ỗ":3054,"ộ":3055,"ớ":3056,"ờ":3057,"ở":3058,"ỡ":3059,"ợ":3060,"ụ":3061,"Ủ":3062,"ủ":3063,"Ứ":3064,"ứ":3065,"ừ":3066,"ử":3067,"ữ":3068,"ự":3069,"Ỳ":3070,"ỳ":3071,"ỵ":3072,"ỷ":3073,"Ỹ":3074,"ỹ":3075,"Ỻ":3076,"ỻ":3077,"ἀ":3078,"ἁ":3079,"ἂ":3080,"ἃ":3081,"ἄ":3082,"ἅ":3083,"Ἀ":3084,"Ἁ":3085,"Ἄ":3086,"Ἅ":3087,"Ἆ":3088,"ἐ":3089,"ἑ":3090,"ἒ":3091,"ἓ":3092,"ἔ":3093,"ἕ":3094,"Ἐ":3095,"Ἑ":3096,"Ἓ":3097,"Ἔ":3098,"Ἕ":3099,"ἠ":3100,"ἡ":3101,"ἢ":3102,"ἤ":3103,"ἥ":3104,"ἦ":3105,"ἧ":3106,"Ἠ":3107,"Ἡ":3108,"Ἤ":3109,"Ἥ":3110,"Ἦ":3111,"ἰ":3112,"ἱ":3113,"ἳ":3114,"ἴ":3115,"ἵ":3116,"ἶ":3117,"ἷ":3118,"Ἰ":3119,"Ἱ":3120,"Ἴ":3121,"Ἵ":3122,"Ἶ":3123,"ὀ":3124,"ὁ":3125,"ὂ":3126,"ὃ":3127,"ὄ":3128,"ὅ":3129,"Ὀ":3130,"Ὁ":3131,"Ὄ":3132,"Ὅ":3133,"ὐ":3134,"ὑ":3135,"ὒ":3136,"ὔ":3137,"ὕ":3138,"ὖ":3139,"ὗ":3140,"Ὑ":3141,"Ὕ":3142,"ὠ":3143,"ὡ":3144,"ὣ":3145,"ὤ":3146,"ὥ":3147,"ὦ":3148,"ὧ":3149,"Ὠ":3150,"Ὡ":3151,"Ὥ":3152,"Ὦ":3153,"Ὧ":3154,"ὰ":3155,"ὲ":3156,"ὴ":3157,"ὶ":3158,"ὸ":3159,"ὺ":3160,"ὼ":3161,"ᾄ":3162,"ᾍ":3163,"ᾑ":3164,"ᾖ":3165,"ᾠ":3166,"ᾦ":3167,"ᾧ":3168,"ᾰ":3169,"ᾱ":3170,"ᾳ":3171,"ᾴ":3172,"ᾶ":3173,"ᾷ":3174,"ῃ":3175,"ῆ":3176,"ῇ":3177,"ῐ":3178,"ῑ":3179,"ῒ":3180,"ῖ":3181,"ῠ":3182,"ῡ":3183,"ῤ":3184,"ῥ":3185,"ῦ":3186,"Ὺ":3187,"Ῥ":3188,"ῳ":3189,"ῴ":3190,"ῶ":3191,"ῷ":3192,"‐":3193,"‒":3194,"–":3195,"—":3196,"―":3197,"‖":3198,"‘":3199,"’":3200,"‚":3201,"‛":3202,"“":3203,"”":3204,"„":3205,"‟":3206,"†":3207,"‡":3208,"•":3209,"‣":3210,"‧":3211,"‰":3212,"‱":3213,"′":3214,"‵":3215,"‸":3216,"‹":3217,"›":3218,"※":3219,"‽":3220,"‿":3221,"⁀":3222,"⁁":3223,"⁂":3224,"⁄":3225,"⁊":3226,"⁋":3227,"⁎":3228,"⁏":3229,"⁑":3230,"⁒":3231,"⁓":3232,"⁚":3233,"⁝":3234,"₠":3235,"₡":3236,"₢":3237,"₣":3238,"₤":3239,"₥":3240,"₦":3241,"₧":3242,"₩":3243,"₪":3244,"₫":3245,"€":3246,"₭":3247,"₮":3248,"₯":3249,"₰":3250,"₱":3251,"₳":3252,"₴":3253,"₵":3254,"₶":3255,"₷":3256,"₹":3257,"₼":3258,"₽":3259,"₾":3260,"₿":3261,"⃒":3262,"⃓":3263,"⃝":3264,"⃞":3265,"⃠":3266,"⃣":3267,"℗":3268,"℘":3269,"℞":3270,"℥":3271,"℧":3272,"℮":3273,"Ⅎ":3274,"⅃":3275,"⅄":3276,"⅋":3277,"⅍":3278,"ⅎ":3279,"ↀ":3280,"ↁ":3281,"ↂ":3282,"Ↄ":3283,"ↄ":3284,"ↅ":3285,"ↆ":3286,"ↇ":3287,"ↈ":3288,"←":3289,"↑":3290,"→":3291,"↓":3292,"↔":3293,"↕":3294,"↖":3295,"↗":3296,"↘":3297,"↙":3298,"↛":3299,"↠":3300,"↡":3301,"↣":3302,"↦":3303,"↪":3304,"↭":3305,"↯":3306,"↳":3307,"↴":3308,"↵":3309,"↷":3310,"↸":3311,"↹":3312,"↺":3313,"↻":3314,"↼":3315,"↽":3316,"↾":3317,"↿":3318,"⇀":3319,"⇁":3320,"⇂":3321,"⇃":3322,"⇄":3323,"⇅":3324,"⇆":3325,"⇈":3326,"⇌":3327,"⇐":3328,"⇒":3329,"⇓":3330,"⇔":3331,"⇛":3332,"⇞":3333,"⇟":3334,"⇢":3335,"⇤":3336,"⇥":3337,"⇦":3338,"⇧":3339,"⇨":3340,"⇩":3341,"⇪":3342,"⇫":3343,"⇬":3344,"⇭":3345,"⇮":3346,"⇯":3347,"⇰":3348,"⇱":3349,"⇲":3350,"⇳":3351,"⇵":3352,"⇸":3353,"∀":3354,"∁":3355,"∂":3356,"∃":3357,"∄":3358,"∅":3359,"∆":3360,"∇":3361,"∈":3362,"∉":3363,"∊":3364,"∋":3365,"∌":3366,"∎":3367,"∏":3368,"∐":3369,"∑":3370,"−":3371,"∓":3372,"∔":3373,"∕":3374,"∖":3375,"∗":3376,"∘":3377,"∙":3378,"√":3379,"∝":3380,"∞":3381,"∟":3382,"∠":3383,"∣":3384,"∥":3385,"∦":3386,"∧":3387,"∨":3388,"∩":3389,"∪":3390,"∫":3391,"∮":3392,"∴":3393,"∵":3394,"∶":3395,"∸":3396,"∼":3397,"∽":3398,"∿":3399,"≀":3400,"≃":3401,"≅":3402,"≈":3403,"≌":3404,"≑":3405,"≒":3406,"≔":3407,"≕":3408,"≙":3409,"≜":3410,"≝":3411,"≠":3412,"≡":3413,"≢":3414,"≤":3415,"≥":3416,"≦":3417,"≧":3418,"≪":3419,"≫":3420,"≲":3421,"≺":3422,"≼":3423,"≾":3424,"⊂":3425,"⊃":3426,"⊄":3427,"⊅":3428,"⊆":3429,"⊇":3430,"⊈":3431,"⊊":3432,"⊋":3433,"⊏":3434,"⊐":3435,"⊔":3436,"⊕":3437,"⊖":3438,"⊗":3439,"⊙":3440,"⊝":3441,"⊞":3442,"⊠":3443,"⊢":3444,"⊣":3445,"⊤":3446,"⊥":3447,"⊧":3448,"⊨":3449,"⊩":3450,"⊬":3451,"⊭":3452,"⊰":3453,"⊲":3454,"⊵":3455,"⊶":3456,"⊸":3457,"⊼":3458,"⊽":3459,"⊿":3460,"⋀":3461,"⋁":3462,"⋂":3463,"⋃":3464,"⋄":3465,"⋅":3466,"⋆":3467,"⋈":3468,"⋉":3469,"⋊":3470,"⋐":3471,"⋚":3472,"⋛":3473,"⋮":3474,"⋯":3475,"⋰":3476,"⌀":3477,"⌁":3478,"⌂":3479,"⌃":3480,"⌄":3481,"⌈":3482,"⌉":3483,"⌊":3484,"⌋":3485,"⌑":3486,"⌒":3487,"⌓":3488,"⌘":3489,"⌚":3490,"⌜":3491,"⌝":3492,"⌤":3493,"⌥":3494,"⌦":3495,"⌫":3496,"⌷":3497,"⍛":3498,"⍜":3499,"⍝":3500,"⍳":3501,"⍵":3502,"⎀":3503,"⎇":3504,"⎈":3505,"⎉":3506,"⎊":3507,"⎋":3508,"⎕":3509,"⎙":3510,"⎧":3511,"⎩":3512,"⎰":3513,"⎱":3514,"⎸":3515,"⎹":3516,"⎾":3517,"⎿":3518,"⏋":3519,"⏌":3520,"⏍":3521,"⏎":3522,"⏏":3523,"⏚":3524,"⏦":3525,"⏨":3526,"⏩":3527,"␀":3528,"␃":3529,"␄":3530,"␅":3531,"␆":3532,"␇":3533,"␉":3534,"␋":3535,"␎":3536,"␏":3537,"␕":3538,"␚":3539,"␛":3540,"␡":3541,"␣":3542,"⓴":3543,"⓵":3544,"⓷":3545,"⓺":3546,"⓾":3547,"⓿":3548,"─":3549,"━":3550,"│":3551,"┃":3552,"┄":3553,"┅":3554,"┌":3555,"┏":3556,"┐":3557,"┑":3558,"┓":3559,"└":3560,"┗":3561,"┘":3562,"┛":3563,"├":3564,"┝":3565,"┠":3566,"┣":3567,"┤":3568,"┨":3569,"┫":3570,"┬":3571,"┯":3572,"┳":3573,"┴":3574,"┸":3575,"┻":3576,"┼":3577,"╋":3578,"═":3579,"╞":3580,"╡":3581,"╭":3582,"╮":3583,"╯":3584,"╰":3585,"╱":3586,"╲":3587,"╳":3588,"╴":3589,"╹":3590,"▀":3591,"▁":3592,"▂":3593,"▃":3594,"▄":3595,"▅":3596,"▆":3597,"▇":3598,"█":3599,"▉":3600,"▊":3601,"▋":3602,"▌":3603,"▍":3604,"▎":3605,"▏":3606,"▐":3607,"░":3608,"▒":3609,"▓":3610,"▔":3611,"▕":3612,"■":3613,"□":3614,"▢":3615,"▪":3616,"▫":3617,"▭":3618,"▮":3619,"▯":3620,"▱":3621,"▲":3622,"△":3623,"▴":3624,"▶":3625,"▷":3626,"▸":3627,"▼":3628,"▽":3629,"◀":3630,"◁":3631,"◅":3632,"◆":3633,"◇":3634,"◈":3635,"◉":3636,"◊":3637,"○":3638,"◌":3639,"◎":3640,"●":3641,"◐":3642,"◑":3643,"◒":3644,"◓":3645,"◕":3646,"◜":3647,"◝":3648,"◢":3649,"◣":3650,"◤":3651,"◥":3652,"◦":3653,"◬":3654,"◯":3655,"◻":3656,"◼":3657,"◾":3658,"☀":3659,"☁":3660,"☂":3661,"☃":3662,"★":3663,"☆":3664,"☇":3665,"☈":3666,"☉":3667,"☊":3668,"☋":3669,"☌":3670,"☍":3671,"☎":3672,"☐":3673,"☑":3674,"☒":3675,"☓":3676,"☔":3677,"☕":3678,"☖":3679,"☗":3680,"☛":3681,"☜":3682,"☝":3683,"☞":3684,"☟":3685,"☠":3686,"☢":3687,"☧":3688,"☨":3689,"☪":3690,"☭":3691,"☮":3692,"☯":3693,"☰":3694,"☱":3695,"☲":3696,"☳":3697,"☴":3698,"☵":3699,"☶":3700,"☷":3701,"☺":3702,"☻":3703,"☼":3704,"☽":3705,"☾":3706,"☿":3707,"♀":3708,"♂":3709,"♃":3710,"♄":3711,"♆":3712,"♈":3713,"♉":3714,"♋":3715,"♐":3716,"♒":3717,"♔":3718,"♕":3719,"♖":3720,"♗":3721,"♘":3722,"♙":3723,"♚":3724,"♛":3725,"♜":3726,"♝":3727,"♞":3728,"♟":3729,"♠":3730,"♡":3731,"♢":3732,"♣":3733,"♤":3734,"♥":3735,"♦":3736,"♧":3737,"♨":3738,"♩":3739,"♪":3740,"♫":3741,"♬":3742,"♭":3743,"♮":3744,"♯":3745,"♰":3746,"♲":3747,"♺":3748,"♻":3749,"♼":3750,"♽":3751,"♾":3752,"♿":3753,"⚊":3754,"⚋":3755,"⚌":3756,"⚍":3757,"⚎":3758,"⚏":3759,"⚓":3760,"⚠":3761,"⚡":3762,"⚥":3763,"⚧":3764,"⚪":3765,"⚫":3766,"⚬":3767,"⚭":3768,"⚳":3769,"⚵":3770,"⚹":3771,"⚽":3772,"⚾":3773,"⛄":3774,"⛅":3775,"⛆":3776,"⛇":3777,"⛈":3778,"⛉":3779,"⛊":3780,"⛎":3781,"⛗":3782,"⛤":3783,"⛩":3784,"⛯":3785,"✂":3786,"✈":3787,"✌":3788,"✏":3789,"✓":3790,"✔":3791,"✕":3792,"✖":3793,"✗":3794,"✙":3795,"✚":3796,"✝":3797,"✞":3798,"✟":3799,"✡":3800,"✨":3801,"✩":3802,"✪":3803,"✫":3804,"✮":3805,"✯":3806,"✰":3807,"✱":3808,"✳":3809,"✴":3810,"✻":3811,"✼":3812,"✽":3813,"✿":3814,"❀":3815,"❁":3816,"❄":3817,"❅":3818,"❆":3819,"❓":3820,"❔":3821,"❗":3822,"❚":3823,"❛":3824,"❜":3825,"❝":3826,"❞":3827,"❡":3828,"❣":3829,"❤":3830,"❦":3831,"❨":3832,"❩":3833,"❲":3834,"❳":3835,"❵":3836,"❶":3837,"❷":3838,"❸":3839,"❹":3840,"❺":3841,"❾":3842,"➀":3843,"➁":3844,"➂":3845,"➄":3846,"➆":3847,"➉":3848,"➋":3849,"➍":3850,"➓":3851,"➔":3852,"➖":3853,"➜":3854,"➝":3855,"➡":3856,"➢":3857,"➧":3858,"➰":3859,"➸":3860,"➽":3861,"➾":3862,"➿":3863,"⟐":3864,"⟨":3865,"⟩":3866,"⟮":3867,"⟯":3868,"⟶":3869,"⟺":3870,"⠀":3871,"⠁":3872,"⠃":3873,"⠅":3874,"⠆":3875,"⠇":3876,"⠉":3877,"⠊":3878,"⠋":3879,"⠍":3880,"⠎":3881,"⠏":3882,"⠑":3883,"⠒":3884,"⠓":3885,"⠕":3886,"⠗":3887,"⠙":3888,"⠚":3889,"⠛":3890,"⠝":3891,"⠞":3892,"⠠":3893,"⠢":3894,"⠤":3895,"⠥":3896,"⠨":3897,"⠫":3898,"⠬":3899,"⠰":3900,"⠲":3901,"⠳":3902,"⠷":3903,"⠹":3904,"⠺":3905,"⠽":3906,"⤅":3907,"⤇":3908,"⤖":3909,"⤴":3910,"⤵":3911,"⦃":3912,"⦄":3913,"⦅":3914,"⦆":3915,"⦵":3916,"⦿":3917,"⧜":3918,"⧝":3919,"⧞":3920,"⧠":3921,"⧵":3922,"⧺":3923,"⧻":3924,"⨁":3925,"⨂":3926,"⨃":3927,"⨄":3928,"⨉":3929,"⨛":3930,"⨜":3931,"⨟":3932,"⨾":3933,"⩚":3934,"⩛":3935,"⩤":3936,"⩥":3937,"⩽":3938,"⩾":3939,"⪋":3940,"⪌":3941,"⫟":3942,"⬁":3943,"⬆":3944,"⬛":3945,"⬜":3946,"⬠":3947,"⬢":3948,"⬱":3949,"⭐":3950,"⭕":3951,"⭗":3952,"⭘":3953,"⭶":3954,"⭾":3955,"Ⰰ":3956,"Ⰱ":3957,"Ⰲ":3958,"Ⰳ":3959,"Ⰴ":3960,"Ⰵ":3961,"Ⰶ":3962,"Ⰷ":3963,"Ⰸ":3964,"Ⰽ":3965,"Ⰾ":3966,"Ⱀ":3967,"Ⱁ":3968,"Ⱄ":3969,"Ⱏ":3970,"Ⱐ":3971,"Ⱑ":3972,"Ᵽ":3973,"ⱨ":3974,"Ⱬ":3975,"ⱬ":3976,"Ɱ":3977,"ⱱ":3978,"Ⱶ":3979,"ⱶ":3980,"Ⲁ":3981,"ⲁ":3982,"Ⲃ":3983,"ⲃ":3984,"ⲅ":3985,"Ⲇ":3986,"ⲇ":3987,"Ⲉ":3988,"ⲉ":3989,"ⲍ":3990,"ⲏ":3991,"Ⲑ":3992,"ⲑ":3993,"ⲓ":3994,"ⲕ":3995,"ⲗ":3996,"Ⲙ":3997,"ⲙ":3998,"ⲛ":3999,"ⲝ":4000,"ⲟ":4001,"Ⲡ":4002,"ⲡ":4003,"Ⲣ":4004,"ⲣ":4005,"Ⲥ":4006,"ⲥ":4007,"Ⲧ":4008,"ⲧ":4009,"ⲩ":4010,"ⲫ":4011,"Ⲭ":4012,"ⲭ":4013,"ⲱ":4014,"ⴍ":4015,"ⴓ":4016,"ⴣ":4017,"ⴰ":4018,"ⴱ":4019,"ⴳ":4020,"ⴷ":4021,"ⴸ":4022,"ⴹ":4023,"ⴻ":4024,"ⴼ":4025,"ⴽ":4026,"ⴾ":4027,"ⵀ":4028,"ⵃ":4029,"ⵄ":4030,"ⵅ":4031,"ⵇ":4032,"ⵉ":4033,"ⵊ":4034,"ⵍ":4035,"ⵎ":4036,"ⵏ":4037,"ⵒ":4038,"ⵓ":4039,"ⵔ":4040,"ⵕ":4041,"ⵖ":4042,"ⵙ":4043,"ⵛ":4044,"ⵜ":4045,"ⵟ":4046,"ⵡ":4047,"ⵢ":4048,"ⵣ":4049,"⸘":4050,"⸜":4051,"⸝":4052,"⸮":4053,"⹀":4054,"⺊":4055,"⺋":4056,"⺌":4057,"⺍":4058,"⺒":4059,"⺕":4060,"⺠":4061,"⺬":4062,"⺭":4063,"⺼":4064,"⻃":4065,"⻄":4066,"⻆":4067,"⻌":4068,"⻍":4069,"⻎":4070,"⻑":4071,"⻘":4072,"⻯":4073,"⿰":4074,"⿱":4075,"⿻":4076,"、":4077,"。":4078,"〃":4079,"〄":4080,"々":4081,"〆":4082,"〇":4083,"〈":4084,"〉":4085,"《":4086,"》":4087,"「":4088,"」":4089,"『":4090,"』":4091,"【":4092,"】":4093,"〒":4094,"〓":4095,"〔":4096,"〕":4097,"〖":4098,"〗":4099,"〘":4100,"〙":4101,"〚":4102,"〛":4103,"〜":4104,"〝":4105,"〞":4106,"〟":4107,"〠":4108,"〡":4109,"〮":4110,"〯":4111,"〰":4112,"〱":4113,"〲":4114,"〳":4115,"〴":4116,"〵":4117,"〷":4118,"〻":4119,"〼":4120,"〽":4121,"〿":4122,"ぁ":4123,"あ":4124,"ぃ":4125,"い":4126,"ぅ":4127,"う":4128,"ぇ":4129,"え":4130,"ぉ":4131,"お":4132,"か":4133,"が":4134,"き":4135,"ぎ":4136,"く":4137,"ぐ":4138,"け":4139,"げ":4140,"こ":4141,"ご":4142,"さ":4143,"ざ":4144,"し":4145,"じ":4146,"す":4147,"ず":4148,"せ":4149,"ぜ":4150,"そ":4151,"ぞ":4152,"た":4153,"だ":4154,"ち":4155,"ぢ":4156,"っ":4157,"つ":4158,"づ":4159,"て":4160,"で":4161,"と":4162,"ど":4163,"な":4164,"に":4165,"ぬ":4166,"ね":4167,"の":4168,"は":4169,"ば":4170,"ぱ":4171,"ひ":4172,"び":4173,"ぴ":4174,"ふ":4175,"ぶ":4176,"ぷ":4177,"へ":4178,"べ":4179,"ぺ":4180,"ほ":4181,"ぼ":4182,"ぽ":4183,"ま":4184,"み":4185,"む":4186,"め":4187,"も":4188,"ゃ":4189,"や":4190,"ゅ":4191,"ゆ":4192,"ょ":4193,"よ":4194,"ら":4195,"り":4196,"る":4197,"れ":4198,"ろ":4199,"ゎ":4200,"わ":4201,"ゐ":4202,"ゑ":4203,"を":4204,"ん":4205,"ゔ":4206,"ゕ":4207,"ゖ":4208,"゙":4209,"゚":4210,"ゝ":4211,"ゞ":4212,"゠":4213,"ァ":4214,"ア":4215,"ィ":4216,"イ":4217,"ゥ":4218,"ウ":4219,"ェ":4220,"エ":4221,"ォ":4222,"オ":4223,"カ":4224,"ガ":4225,"キ":4226,"ギ":4227,"ク":4228,"グ":4229,"ケ":4230,"ゲ":4231,"コ":4232,"ゴ":4233,"サ":4234,"ザ":4235,"シ":4236,"ジ":4237,"ス":4238,"ズ":4239,"セ":4240,"ゼ":4241,"ソ":4242,"ゾ":4243,"タ":4244,"ダ":4245,"チ":4246,"ヂ":4247,"ッ":4248,"ツ":4249,"ヅ":4250,"テ":4251,"デ":4252,"ト":4253,"ド":4254,"ナ":4255,"ニ":4256,"ヌ":4257,"ネ":4258,"ノ":4259,"ハ":4260,"バ":4261,"パ":4262,"ヒ":4263,"ビ":4264,"ピ":4265,"フ":4266,"ブ":4267,"プ":4268,"ヘ":4269,"ベ":4270,"ペ":4271,"ホ":4272,"ボ":4273,"ポ":4274,"マ":4275,"ミ":4276,"ム":4277,"メ":4278,"モ":4279,"ャ":4280,"ヤ":4281,"ュ":4282,"ユ":4283,"ョ":4284,"ヨ":4285,"ラ":4286,"リ":4287,"ル":4288,"レ":4289,"ロ":4290,"ヮ":4291,"ワ":4292,"ヰ":4293,"ヱ":4294,"ヲ":4295,"ン":4296,"ヴ":4297,"ヵ":4298,"ヶ":4299,"ヷ":4300,"ヸ":4301,"ヹ":4302,"ヺ":4303,"・":4304,"ー":4305,"ヽ":4306,"ヾ":4307,"ㄅ":4308,"ㄆ":4309,"ㄇ":4310,"ㄈ":4311,"ㄉ":4312,"ㄊ":4313,"ㄋ":4314,"ㄌ":4315,"ㄍ":4316,"ㄎ":4317,"ㄏ":4318,"ㄐ":4319,"ㄑ":4320,"ㄒ":4321,"ㄓ":4322,"ㄔ":4323,"ㄕ":4324,"ㄖ":4325,"ㄗ":4326,"ㄘ":4327,"ㄙ":4328,"ㄚ":4329,"ㄛ":4330,"ㄜ":4331,"ㄝ":4332,"ㄞ":4333,"ㄟ":4334,"ㄠ":4335,"ㄡ":4336,"ㄢ":4337,"ㄣ":4338,"ㄤ":4339,"ㄥ":4340,"ㄦ":4341,"ㄧ":4342,"ㄨ":4343,"ㄩ":4344,"ㄪ":4345,"ㄫ":4346,"ㄬ":4347,"ㄭ":4348,"㆑":4349,"ㆣ":4350,"㇏":4351,"ㇰ":4352,"ㇱ":4353,"ㇲ":4354,"ㇳ":4355,"ㇴ":4356,"ㇵ":4357,"ㇶ":4358,"ㇷ":4359,"ㇸ":4360,"ㇹ":4361,"ㇺ":4362,"ㇻ":4363,"ㇼ":4364,"ㇽ":4365,"ㇾ":4366,"ㇿ":4367,"㉿":4368,"㐀":4369,"㐁":4370,"㐂":4371,"㐅":4372,"㐇":4373,"㐈":4374,"㐉":4375,"㐊":4376,"㐋":4377,"㐌":4378,"㐍":4379,"㐎":4380,"㐏":4381,"㐐":4382,"㐑":4383,"㐒":4384,"㐓":4385,"㐔":4386,"㐕":4387,"㐖":4388,"㐗":4389,"㐘":4390,"㐙":4391,"㐚":4392,"㐛":4393,"㐝":4394,"㐞":4395,"㐟":4396,"㐠":4397,"㐡":4398,"㐢":4399,"㐣":4400,"㐤":4401,"㐥":4402,"㐦":4403,"㐧":4404,"㐭":4405,"㐮":4406,"㐰":4407,"㑃":4408,"㑳":4409,"㑹":4410,"㒰":4411,"㒵":4412,"㒶":4413,"㒷":4414,"㒿":4415,"㓁":4416,"㓗":4417,"㓛":4418,"㓝":4419,"㔔":4420,"㔖":4421,"㔟":4422,"㔨":4423,"㔾":4424,"㕎":4425,"㕑":4426,"㕓":4427,"㕙":4428,"㕭":4429,"㕵":4430,"㕾":4431,"㖋":4432,"㖌":4433,"㖍":4434,"㖎":4435,"㖙":4436,"㖚":4437,"㖛":4438,"㖜":4439,"㖝":4440,"㖨":4441,"㖯":4442,"㖰":4443,"㖲":4444,"㖳":4445,"㖼":4446,"㗂":4447,"㗊":4448,"㗎":4449,"㗜":4450,"㗝":4451,"㗟":4452,"㗠":4453,"㗡":4454,"㗯":4455,"㘏":4456,"㘒":4457,"㘓":4458,"㘴":4459,"㙁":4460,"㙊":4461,"㙍":4462,"㙒":4463,"㙔":4464,"㙦":4465,"㙺":4466,"㚇":4467,"㚕":4468,"㚟":4469,"㚻":4470,"㛍":4471,"㛹":4472,"㜢":4473,"㜪":4474,"㝅":4475,"㝉":4476,"㝎":4477,"㝢":4478,"㝵":4479,"㝹":4480,"㞍":4481,"㞗":4482,"㞢":4483,"㞣":4484,"㟁":4485,"㟢":4486,"㟧":4487,"㟴":4488,"㟼":4489,"㠀":4490,"㠯":4491,"㠰":4492,"㡀":4493,"㡬":4494,"㡭":4495,"㡮":4496,"㡿":4497,"㢤":4498,"㢥":4499,"㢦":4500,"㢧":4501,"㢴":4502,"㢸":4503,"㣆":4504,"㣺":4505,"㤄":4506,"㤗":4507,"㤚":4508,"㤝":4509,"㥄":4510,"㥠":4511,"㥽":4512,"㦀":4513,"㦃":4514,"㦕":4515,"㦮":4516,"㦽":4517,"㧞":4518,"㩋":4519,"㩪":4520,"㪉":4521,"㪘":4522,"㪲":4523,"㪳":4524,"㫃":4525,"㫇":4526,"㫈":4527,"㫒":4528,"㫕":4529,"㫖":4530,"㫝":4531,"㫟":4532,"㫤":4533,"㫻":4534,"㬀":4535,"㬅":4536,"㬇":4537,"㬎":4538,"㬏":4539,"㬠":4540,"㬢":4541,"㭭":4542,"㭽":4543,"㮈":4544,"㮒":4545,"㮙":4546,"㮛":4547,"㮶":4548,"㮾":4549,"㯊":4550,"㯖":4551,"㯮":4552,"㰒":4553,"㰷":4554,"㱈":4555,"㲴":4556,"㲵":4557,"㲶":4558,"㲷":4559,"㳇":4560,"㳍":4561,"㳒":4562,"㴐":4563,"㴜":4564,"㴬":4565,"㴭":4566,"㴶":4567,"㵎":4568,"㵑":4569,"㵮":4570,"㵲":4571,"㶏":4572,"㶞":4573,"㶟":4574,"㶨":4575,"㶱":4576,"㷃":4577,"㷆":4578,"㷏":4579,"㷔":4580,"㷖":4581,"㷩":4582,"㷬":4583,"㷭":4584,"㸂":4585,"㸃":4586,"㸚":4587,"㸦":4588,"㸧":4589,"㸿":4590,"㹨":4591,"㹻":4592,"㺚":4593,"㺪":4594,"㺭":4595,"㻋":4596,"㻐":4597,"㻱":4598,"㼄":4599,"㼅":4600,"㼐":4601,"㼚":4602,"㽕":4603,"㽛":4604,"㾮":4605,"㿔":4606,"䀌":4607,"䀹":4608,"䀾":4609,"䂓":4610,"䂖":4611,"䂨":4612,"䂮":4613,"䃌":4614,"䃯":4615,"䄂":4616,"䄄":4617,"䄈":4618,"䄉":4619,"䄔":4620,"䄙":4621,"䄣":4622,"䄤":4623,"䄥":4624,"䅗":4625,"䅣":4626,"䅳":4627,"䆃":4628,"䆅":4629,"䇂":4630,"䇄":4631,"䇮":4632,"䇾":4633,"䉤":4634,"䉼":4635,"䊪":4636,"䋇":4637,"䋢":4638,"䋥":4639,"䌤":4640,"䌫":4641,"䍦":4642,"䍺":4643,"䎆":4644,"䎞":4645,"䏁":4646,"䏋":4647,"䏜":4648,"䏧":4649,"䏻":4650,"䏽":4651,"䏾":4652,"䐗":4653,"䐲":4654,"䑏":4655,"䑞":4656,"䒑":4657,"䓟":4658,"䓣":4659,"䓯":4660,"䓲":4661,"䔄":4662,"䔞":4663,"䔥":4664,"䔲":4665,"䕃":4666,"䖢":4667,"䖳":4668,"䖸":4669,"䗅":4670,"䗝":4671,"䗪":4672,"䙥":4673,"䚟":4674,"䚡":4675,"䛒":4676,"䛾":4677,"䛿":4678,"䜁":4679,"䜌":4680,"䜳":4681,"䞭":4682,"䟵":4683,"䟽":4684,"䡄":4685,"䡎":4686,"䣖":4687,"䣷":4688,"䤡":4689,"䤭":4690,"䤻":4691,"䦧":4692,"䦰":4693,"䧇":4694,"䨄":4695,"䨓":4696,"䨺":4697,"䪥":4698,"䪪":4699,"䫻":4700,"䬡":4701,"䭏":4702,"䮀":4703,"䯀":4704,"䰗":4705,"䰢":4706,"䰼":4707,"䰾":4708,"䱅":4709,"䱱":4710,"䱷":4711,"䱸":4712,"䲁":4713,"䲲":4714,"䳇":4715,"䳉":4716,"䳑":4717,"䳒":4718,"䳔":4719,"䴇":4720,"䴏":4721,"䴚":4722,"䴡":4723,"䴤":4724,"䴥":4725,"䵋":4726,"䵍":4727,"䵣":4728,"䶮":4729,"䶵":4730,"一":4731,"丁":4732,"丂":4733,"七":4734,"丄":4735,"丅":4736,"万":4737,"丈":4738,"三":4739,"上":4740,"下":4741,"丌":4742,"不":4743,"与":4744,"丏":4745,"丐":4746,"丑":4747,"丒":4748,"专":4749,"且":4750,"丕":4751,"世":4752,"丗":4753,"丘":4754,"丙":4755,"业":4756,"丛":4757,"东":4758,"丝":4759,"丞":4760,"丟":4761,"両":4762,"丢":4763,"两":4764,"严":4765,"並":4766,"丧":4767,"丨":4768,"个":4769,"丫":4770,"丬":4771,"中":4772,"丮":4773,"丯":4774,"丰":4775,"丱":4776,"串":4777,"丳":4778,"临":4779,"丵":4780,"丶":4781,"丷":4782,"丸":4783,"丹":4784,"为":4785,"主":4786,"丼":4787,"丽":4788,"举":4789,"丿":4790,"乀":4791,"乁":4792,"乂":4793,"乃":4794,"乄":4795,"久":4796,"乇":4797,"么":4798,"义":4799,"之":4800,"乌":4801,"乍":4802,"乎":4803,"乏":4804,"乐":4805,"乒":4806,"乓":4807,"乔":4808,"乕":4809,"乖":4810,"乗":4811,"乘":4812,"乙":4813,"乚":4814,"乛":4815,"乜":4816,"九":4817,"乞":4818,"也":4819,"习":4820,"乡":4821,"乢":4822,"乣":4823,"乤":4824,"书":4825,"乧":4826,"乩":4827,"乫":4828,"乬":4829,"乭":4830,"乮":4831,"乯":4832,"买":4833,"乱":4834,"乲":4835,"乳":4836,"乶":4837,"乷":4838,"乹":4839,"乺":4840,"乻":4841,"乼":4842,"乽":4843,"乾":4844,"乿":4845,"亀":4846,"亂":4847,"亅":4848,"了":4849,"予":4850,"争":4851,"亊":4852,"事":4853,"二":4854,"亍":4855,"于":4856,"亏":4857,"亐":4858,"云":4859,"互":4860,"亓":4861,"五":4862,"井":4863,"亖":4864,"亘":4865,"亙":4866,"亚":4867,"些":4868,"亜":4869,"亞":4870,"亟":4871,"亠":4872,"亡":4873,"亢":4874,"交":4875,"亥":4876,"亦":4877,"产":4878,"亨":4879,"亩":4880,"享":4881,"京":4882,"亭":4883,"亮":4884,"亰":4885,"亲":4886,"亳":4887,"亶":4888,"亹":4889,"人":4890,"亻":4891,"亼":4892,"亿":4893,"什":4894,"仁":4895,"仂":4896,"仃":4897,"仄":4898,"仅":4899,"仆":4900,"仇":4901,"仉":4902,"今":4903,"介":4904,"仌":4905,"仍":4906,"从":4907,"仏":4908,"仐":4909,"仑":4910,"仓":4911,"仔":4912,"仕":4913,"他":4914,"仗":4915,"付":4916,"仙":4917,"仚":4918,"仝":4919,"仞":4920,"仟":4921,"仡":4922,"代":4923,"令":4924,"以":4925,"仦":4926,"仨":4927,"仪":4928,"仫":4929,"们":4930,"仭":4931,"仮":4932,"仰":4933,"仲":4934,"仳":4935,"仵":4936,"件":4937,"价":4938,"任":4939,"仼":4940,"份":4941,"仿":4942,"企":4943,"伃":4944,"伅":4945,"伉":4946,"伊":4947,"伋":4948,"伍":4949,"伎":4950,"伏":4951,"伐":4952,"休":4953,"伓":4954,"伕":4955,"众":4956,"优":4957,"伙":4958,"会":4959,"伜":4960,"伝":4961,"伞":4962,"伟":4963,"传":4964,"伢":4965,"伤":4966,"伦":4967,"伪":4968,"伫":4969,"伯":4970,"估":4971,"伴":4972,"伶":4973,"伷":4974,"伸":4975,"伹":4976,"伺":4977,"伻":4978,"似":4979,"伽":4980,"伾":4981,"佁":4982,"佃":4983,"佅":4984,"但":4985,"佇":4986,"佈":4987,"佉":4988,"佊":4989,"佋":4990,"位":4991,"低":4992,"住":4993,"佐":4994,"佑":4995,"体":4996,"佔":4997,"何":4998,"佖":4999,"佗":5000,"佘":5001,"余":5002,"佚":5003,"佛":5004,"作":5005,"佝":5006,"佞":5007,"佟":5008,"你":5009,"佢":5010,"佤":5011,"佩":5012,"佬":5013,"佯":5014,"佰":5015,"佳":5016,"佴":5017,"併":5018,"佶":5019,"佷":5020,"佺":5021,"佻":5022,"佼":5023,"佽":5024,"佾":5025,"使":5026,"侁":5027,"侂":5028,"侃":5029,"侄":5030,"侅":5031,"來":5032,"侈":5033,"侊":5034,"例":5035,"侍":5036,"侎":5037,"侏":5038,"侑":5039,"侒":5040,"侔":5041,"侖":5042,"侗":5043,"侘":5044,"侚":5045,"供":5046,"依":5047,"侞":5048,"侠":5049,"価":5050,"侤":5051,"侦":5052,"侧":5053,"侨":5054,"侫":5055,"侬":5056,"侭":5057,"侮":5058,"侯":5059,"侲":5060,"侳":5061,"侵":5062,"侶":5063,"侷":5064,"侹":5065,"侼":5066,"侾":5067,"便":5068,"俀":5069,"俁":5070,"係":5071,"促":5072,"俄":5073,"俅":5074,"俆":5075,"俉":5076,"俊":5077,"俋":5078,"俌":5079,"俍":5080,"俎":5081,"俏":5082,"俐":5083,"俑":5084,"俒":5085,"俓":5086,"俔":5087,"俗":5088,"俘":5089,"俚":5090,"俛":5091,"保":5092,"俞":5093,"俟":5094,"俠":5095,"信":5096,"俣":5097,"俤":5098,"俥":5099,"俩":5100,"俪":5101,"修":5102,"俯":5103,"俰":5104,"俱":5105,"俳":5106,"俵":5107,"俶":5108,"俸":5109,"俺":5110,"俾":5111,"倀":5112,"倁":5113,"倂":5114,"倅":5115,"倆":5116,"倇":5117,"倉":5118,"個":5119,"倍":5120,"倎":5121,"倏":5122,"們":5123,"倒":5124,"倓":5125,"倔":5126,"倕":5127,"倖":5128,"倘":5129,"候":5130,"倚":5131,"倛":5132,"倜":5133,"倞":5134,"借":5135,"倡":5136,"倢":5137,"倣":5138,"値":5139,"倦":5140,"倧":5141,"倨":5142,"倩":5143,"倪":5144,"倫":5145,"倬":5146,"倭":5147,"倮":5148,"倶":5149,"倸":5150,"倹":5151,"债":5152,"倻":5153,"值":5154,"倽":5155,"偀":5156,"偁":5157,"偂":5158,"偃":5159,"偆":5160,"假":5161,"偈":5162,"偉":5163,"偌":5164,"偍":5165,"偎":5166,"偏":5167,"偐":5168,"偑":5169,"偒":5170,"偓":5171,"偕":5172,"偖":5173,"偘":5174,"做":5175,"停":5176,"偠":5177,"偡":5178,"偣":5179,"健":5180,"偦":5181,"偪":5182,"偫":5183,"偰":5184,"偲":5185,"側":5186,"偵":5187,"偶":5188,"偷":5189,"偸":5190,"偽":5191,"傀":5192,"傂":5193,"傅":5194,"傈":5195,"傉":5196,"傊":5197,"傌":5198,"傍":5199,"傏":5200,"傑":5201,"傒":5202,"傔":5203,"傕":5204,"傖":5205,"傘":5206,"備":5207,"傚":5208,"傛":5209,"傢":5210,"傣":5211,"储":5212,"傪":5213,"催":5214,"傭":5215,"傲":5216,"傳":5217,"傴":5218,"債":5219,"傷":5220,"傻":5221,"傾":5222,"傿":5223,"僂":5224,"僄":5225,"僅":5226,"僉":5227,"僊":5228,"僌":5229,"働":5230,"僎":5231,"像":5232,"僐":5233,"僑":5234,"僔":5235,"僕":5236,"僖":5237,"僘":5238,"僙":5239,"僚":5240,"僞":5241,"僡":5242,"僣":5243,"僥":5244,"僦":5245,"僧":5246,"僩":5247,"僬":5248,"僭":5249,"僮":5250,"僰":5251,"僱":5252,"僲":5253,"僳":5254,"僴":5255,"僵":5256,"價":5257,"僻":5258,"僾":5259,"僿":5260,"儀":5261,"儁":5262,"儂":5263,"儃":5264,"億":5265,"儆":5266,"儇":5267,"儈":5268,"儉":5269,"儋":5270,"儐":5271,"儒":5272,"儔":5273,"儕":5274,"儘":5275,"儙":5276,"儚":5277,"儛":5278,"儞":5279,"償":5280,"儡":5281,"儦":5282,"優":5283,"儲":5284,"儵":5285,"儷":5286,"儸":5287,"儹":5288,"儺":5289,"儻":5290,"儼":5291,"儾":5292,"儿":5293,"兀":5294,"允":5295,"元":5296,"兄":5297,"充":5298,"兆":5299,"兇":5300,"先":5301,"光":5302,"兊":5303,"克":5304,"兌":5305,"免":5306,"兎":5307,"児":5308,"兑":5309,"兒":5310,"兔":5311,"兕":5312,"兖":5313,"兗":5314,"党":5315,"兛":5316,"兜":5317,"兞":5318,"兟":5319,"兢":5320,"兤":5321,"入":5322,"內":5323,"全":5324,"兩":5325,"兪":5326,"八":5327,"公":5328,"六":5329,"兮":5330,"兰":5331,"共":5332,"关":5333,"兴":5334,"兵":5335,"其":5336,"具":5337,"典":5338,"兹":5339,"兺":5340,"养":5341,"兼":5342,"兽":5343,"冀":5344,"冂":5345,"冄":5346,"内":5347,"円":5348,"冇":5349,"冈":5350,"冉":5351,"冊":5352,"册":5353,"再":5354,"冏":5355,"冐":5356,"冑":5357,"冒":5358,"冓":5359,"冕":5360,"冖":5361,"冗":5362,"写":5363,"冚":5364,"军":5365,"农":5366,"冝":5367,"冠":5368,"冢":5369,"冤":5370,"冥":5371,"冦":5372,"冨":5373,"冩":5374,"冪":5375,"冫":5376,"冬":5377,"冯":5378,"冰":5379,"冱":5380,"冲":5381,"决":5382,"冴":5383,"况":5384,"冶":5385,"冷":5386,"冻":5387,"冼":5388,"冽":5389,"冾":5390,"净":5391,"凃":5392,"凄":5393,"准":5394,"凇":5395,"凉":5396,"凊":5397,"凋":5398,"凌":5399,"凍":5400,"减":5401,"凑":5402,"凕":5403,"凖":5404,"凛":5405,"凜":5406,"凝":5407,"凞":5408,"几":5409,"凡":5410,"凢":5411,"凤":5412,"処":5413,"凧":5414,"凩":5415,"凪":5416,"凬":5417,"凭":5418,"凮":5419,"凯":5420,"凰":5421,"凱":5422,"凳":5423,"凴":5424,"凵":5425,"凶":5426,"凸":5427,"凹":5428,"出":5429,"击":5430,"凼":5431,"函":5432,"凾":5433,"刀":5434,"刁":5435,"刂":5436,"刃":5437,"刄":5438,"分":5439,"切":5440,"刈":5441,"刊":5442,"刋":5443,"刍":5444,"刎":5445,"刑":5446,"划":5447,"刓":5448,"刔":5449,"刕":5450,"刖":5451,"列":5452,"刘":5453,"则":5454,"刚":5455,"创":5456,"初":5457,"刢":5458,"判":5459,"別":5460,"刧":5461,"刨":5462,"利":5463,"刪":5464,"别":5465,"刮":5466,"到":5467,"刲":5468,"刳":5469,"刵":5470,"制":5471,"刷":5472,"券":5473,"刹":5474,"刺":5475,"刻":5476,"剁":5477,"剃":5478,"剄":5479,"剅":5480,"則":5481,"剉":5482,"削":5483,"剋":5484,"剌":5485,"前":5486,"剏":5487,"剐":5488,"剑":5489,"剔":5490,"剕":5491,"剖":5492,"剗":5493,"剛":5494,"剜":5495,"剝":5496,"剞":5497,"剡":5498,"剣":5499,"剤":5500,"剥":5501,"剧":5502,"剩":5503,"剪":5504,"剮":5505,"副":5506,"剰":5507,"剱":5508,"割":5509,"剳":5510,"剴":5511,"創":5512,"剷":5513,"剺":5514,"剼":5515,"剽":5516,"剿":5517,"劂":5518,"劃":5519,"劄":5520,"劇":5521,"劈":5522,"劉":5523,"劊":5524,"劌":5525,"劍":5526,"劏":5527,"劑":5528,"劒":5529,"劓":5530,"劔":5531,"劗":5532,"力":5533,"劝":5534,"办":5535,"功":5536,"加":5537,"务":5538,"劣":5539,"劦":5540,"动":5541,"助":5542,"努":5543,"劫":5544,"劬":5545,"劭":5546,"励":5547,"劲":5548,"劳":5549,"労":5550,"劵":5551,"効":5552,"劻":5553,"劼":5554,"劾":5555,"势":5556,"勀":5557,"勁":5558,"勃":5559,"勅":5560,"勇":5561,"勉":5562,"勊":5563,"勋":5564,"勍":5565,"勐":5566,"勑":5567,"勒":5568,"勔":5569,"動":5570,"勗":5571,"勘":5572,"務":5573,"勛":5574,"勝":5575,"勞":5576,"募":5577,"勠":5578,"勢":5579,"勣":5580,"勤":5581,"勦":5582,"勧":5583,"勩":5584,"勮":5585,"勰":5586,"勱":5587,"勲":5588,"勳":5589,"勵":5590,"勷":5591,"勸":5592,"勹":5593,"勺":5594,"勻":5595,"勾":5596,"勿":5597,"匀":5598,"匁":5599,"匂":5600,"匄":5601,"包":5602,"匆":5603,"匈":5604,"匊":5605,"匋":5606,"匍":5607,"匏":5608,"匐":5609,"匕":5610,"化":5611,"北":5612,"匙":5613,"匚":5614,"匜":5615,"匝":5616,"匠":5617,"匡":5618,"匣":5619,"匤":5620,"匪":5621,"匯":5622,"匱":5623,"匳":5624,"匸":5625,"匹":5626,"区":5627,"医":5628,"匽":5629,"匾":5630,"匿":5631,"區":5632,"十":5633,"千":5634,"卄":5635,"卅":5636,"卆":5637,"升":5638,"午":5639,"卉":5640,"半":5641,"卋":5642,"卌":5643,"卍":5644,"华":5645,"协":5646,"卐":5647,"卑":5648,"卒":5649,"卓":5650,"協":5651,"单":5652,"卖":5653,"南":5654,"単":5655,"博":5656,"卜":5657,"卞":5658,"占":5659,"卡":5660,"卢":5661,"卣":5662,"卤":5663,"卦":5664,"卧":5665,"卨":5666,"卩":5667,"卫":5668,"卬":5669,"卭":5670,"卯":5671,"印":5672,"危":5673,"卲":5674,"即":5675,"却":5676,"卵":5677,"卷":5678,"卸":5679,"卻":5680,"卼":5681,"卽":5682,"卿":5683,"厂":5684,"厄":5685,"厅":5686,"历":5687,"厉":5688,"压":5689,"厌":5690,"厓":5691,"厔":5692,"厕":5693,"厖":5694,"厘":5695,"厙":5696,"厚":5697,"厝":5698,"原":5699,"厠":5700,"厡":5701,"厥":5702,"厦":5703,"厨":5704,"厩":5705,"厪":5706,"厭":5707,"厰":5708,"厲":5709,"厳":5710,"厶":5711,"厷":5712,"厹":5713,"去":5714,"县":5715,"叀":5716,"叁":5717,"参":5718,"參":5719,"叄":5720,"又":5721,"叉":5722,"及":5723,"友":5724,"双":5725,"反":5726,"収":5727,"发":5728,"叒":5729,"叓":5730,"叔":5731,"叕":5732,"取":5733,"受":5734,"变":5735,"叙":5736,"叚":5737,"叛":5738,"叟":5739,"叡":5740,"叢":5741,"口":5742,"古":5743,"句":5744,"另":5745,"叨":5746,"叩":5747,"只":5748,"叫":5749,"召":5750,"叭":5751,"叮":5752,"可":5753,"台":5754,"叱":5755,"史":5756,"右":5757,"叵":5758,"叶":5759,"号":5760,"司":5761,"叹":5762,"叺":5763,"叻":5764,"吁":5765,"吃":5766,"各":5767,"吅":5768,"吆":5769,"合":5770,"吉":5771,"吊":5772,"吋":5773,"同":5774,"名":5775,"后":5776,"吏":5777,"吐":5778,"向":5779,"吒":5780,"吔":5781,"吕":5782,"吗":5783,"君":5784,"吝":5785,"吞":5786,"吟":5787,"吠":5788,"吡":5789,"否":5790,"吧":5791,"吨":5792,"含":5793,"听":5794,"吭":5795,"吮":5796,"启":5797,"吱":5798,"吳":5799,"吴":5800,"吵":5801,"吶":5802,"吸":5803,"吹":5804,"吺":5805,"吻":5806,"吼":5807,"吽":5808,"吾":5809,"吿":5810,"呀":5811,"呂":5812,"呃":5813,"呆":5814,"呇":5815,"呈":5816,"呉":5817,"告":5818,"呋":5819,"呍":5820,"呎":5821,"呏":5822,"呐":5823,"呑":5824,"呔":5825,"呗":5826,"员":5827,"呛":5828,"呟":5829,"呢":5830,"呦":5831,"周":5832,"呪":5833,"呫":5834,"呬":5835,"呰":5836,"呱":5837,"味":5838,"呴":5839,"呵":5840,"呶":5841,"呷":5842,"呸":5843,"呻":5844,"呼":5845,"命":5846,"呾":5847,"呿":5848,"咀":5849,"咁":5850,"咄":5851,"咅":5852,"咆":5853,"咇":5854,"咊":5855,"咋":5856,"和":5857,"咍":5858,"咎":5859,"咏":5860,"咒":5861,"咕":5862,"咖":5863,"咗":5864,"咘":5865,"咙":5866,"咚":5867,"咟":5868,"咡":5869,"咢":5870,"咤":5871,"咥":5872,"咦":5873,"咧":5874,"咨":5875,"咩":5876,"咪":5877,"咫":5878,"咬":5879,"咭":5880,"咯":5881,"咱":5882,"咲":5883,"咳":5884,"咷":5885,"咸":5886,"咺":5887,"咻":5888,"咼":5889,"咽":5890,"咾":5891,"咿":5892,"哀":5893,"品":5894,"哂":5895,"哄":5896,"哆":5897,"哇":5898,"哈":5899,"哉":5900,"哋":5901,"响":5902,"哎":5903,"哏":5904,"哔":5905,"哖":5906,"哘":5907,"哛":5908,"哟":5909,"哠":5910,"員":5911,"哢":5912,"哤":5913,"哥":5914,"哦":5915,"哨":5916,"哩":5917,"哪":5918,"哭":5919,"哮":5920,"哱":5921,"哲":5922,"哳":5923,"哷":5924,"哺":5925,"哼":5926,"哽":5927,"哾":5928,"哿":5929,"唂":5930,"唄":5931,"唅":5932,"唆":5933,"唇":5934,"唉":5935,"唊":5936,"唎":5937,"唏":5938,"唐":5939,"唔":5940,"唖":5941,"唜":5942,"唟":5943,"唢":5944,"唤":5945,"唧":5946,"唫":5947,"唭":5948,"售":5949,"唯":5950,"唱":5951,"唲":5952,"唳":5953,"唵":5954,"唷":5955,"唸":5956,"唹":5957,"唼":5958,"唾":5959,"啀":5960,"啁":5961,"啃":5962,"啄":5963,"商":5964,"啉":5965,"啊":5966,"啌":5967,"問":5968,"啐":5969,"啓":5970,"啖":5971,"啗":5972,"啚":5973,"啜":5974,"啝":5975,"啞":5976,"啟":5977,"啡":5978,"啢":5979,"啣":5980,"啤":5981,"啥":5982,"啦":5983,"啩":5984,"啪":5985,"啫":5986,"啰":5987,"啱":5988,"啲":5989,"啵":5990,"啶":5991,"啷":5992,"啸":5993,"啻":5994,"啼":5995,"啾":5996,"喀":5997,"喁":5998,"喂":5999,"喃":6000,"善":6001,"喆":6002,"喇":6003,"喈":6004,"喉":6005,"喊":6006,"喋":6007,"喎":6008,"喏":6009,"喑":6010,"喒":6011,"喔":6012,"喘":6013,"喙":6014,"喚":6015,"喜":6016,"喝":6017,"喞":6018,"喟":6019,"喧":6020,"喨":6021,"喩":6022,"喪":6023,"喫":6024,"喬":6025,"喭":6026,"單":6027,"喰":6028,"喱":6029,"喲":6030,"喳":6031,"喵":6032,"営":6033,"喷":6034,"喸":6035,"喹":6036,"喺":6037,"喻":6038,"喼":6039,"喿":6040,"嗃":6041,"嗄":6042,"嗅":6043,"嗆":6044,"嗇":6045,"嗉":6046,"嗋":6047,"嗌":6048,"嗎":6049,"嗏":6050,"嗑":6051,"嗒":6052,"嗓":6053,"嗔":6054,"嗕":6055,"嗚":6056,"嗛":6057,"嗜":6058,"嗝":6059,"嗟":6060,"嗢":6061,"嗣":6062,"嗤":6063,"嗥":6064,"嗦":6065,"嗧":6066,"嗨":6067,"嗩":6068,"嗭":6069,"嗱":6070,"嗲":6071,"嗶":6072,"嗷":6073,"嗹":6074,"嗽":6075,"嗾":6076,"嘀":6077,"嘅":6078,"嘆":6079,"嘈":6080,"嘉":6081,"嘎":6082,"嘏":6083,"嘐":6084,"嘓":6085,"嘔":6086,"嘕":6087,"嘖":6088,"嘗":6089,"嘘":6090,"嘛":6091,"嘜":6092,"嘞":6093,"嘟":6094,"嘢":6095,"嘥":6096,"嘨":6097,"嘩":6098,"嘮":6099,"嘯":6100,"嘰":6101,"嘱":6102,"嘲":6103,"嘴":6104,"嘶":6105,"嘸":6106,"嘹":6107,"嘻":6108,"嘿":6109,"噀":6110,"噂":6111,"噉":6112,"噋":6113,"噌":6114,"噍":6115,"噎":6116,"噏":6117,"噐":6118,"噓":6119,"噗":6120,"噚":6121,"噛":6122,"噜":6123,"噞":6124,"噠":6125,"噢":6126,"噤":6127,"噦":6128,"器":6129,"噩":6130,"噪":6131,"噫":6132,"噬":6133,"噭":6134,"噯":6135,"噱":6136,"噲":6137,"噴":6138,"噶":6139,"噸":6140,"噹":6141,"噺":6142,"嚀":6143,"嚆":6144,"嚇":6145,"嚈":6146,"嚊":6147,"嚋":6148,"嚌":6149,"嚎":6150,"嚏":6151,"嚔":6152,"嚕":6153,"嚙":6154,"嚚":6155,"嚝":6156,"嚟":6157,"嚠":6158,"嚢":6159,"嚤":6160,"嚥":6161,"嚨":6162,"嚩":6163,"嚫":6164,"嚬":6165,"嚭":6166,"嚮":6167,"嚳":6168,"嚴":6169,"嚶":6170,"嚼":6171,"囀":6172,"囁":6173,"囂":6174,"囃":6175,"囇":6176,"囈":6177,"囉":6178,"囊":6179,"囍":6180,"囎":6181,"囑":6182,"囒":6183,"囓":6184,"囗":6185,"囘":6186,"囚":6187,"四":6188,"囝":6189,"回":6190,"囟":6191,"因":6192,"囡":6193,"团":6194,"団":6195,"囤":6196,"囥":6197,"囧":6198,"囪":6199,"囫":6200,"园":6201,"囮":6202,"囯":6203,"困":6204,"囱":6205,"囲":6206,"図":6207,"围":6208,"囶":6209,"囷":6210,"囹":6211,"固":6212,"囻":6213,"国":6214,"图":6215,"囿":6216,"圀":6217,"圂":6218,"圃":6219,"圄":6220,"圆":6221,"圇":6222,"圈":6223,"圉":6224,"圊":6225,"國":6226,"圌":6227,"圍":6228,"圏":6229,"圐":6230,"圑":6231,"園":6232,"圓":6233,"圕":6234,"圖":6235,"團":6236,"圙":6237,"圜":6238,"圞":6239,"土":6240,"圡":6241,"圣":6242,"圤":6243,"圦":6244,"圧":6245,"在":6246,"圩":6247,"圪":6248,"圭":6249,"圮":6250,"圯":6251,"地":6252,"圳":6253,"圴":6254,"圷":6255,"场":6256,"圻":6257,"圾":6258,"址":6259,"坂":6260,"坅":6261,"均":6262,"坉":6263,"坊":6264,"坌":6265,"坍":6266,"坎":6267,"坏":6268,"坐":6269,"坑":6270,"坒":6271,"坔":6272,"坖":6273,"块":6274,"坙":6275,"坚":6276,"坛":6277,"坝":6278,"坞":6279,"坟":6280,"坡":6281,"坤":6282,"坦":6283,"坧":6284,"坨":6285,"坩":6286,"坪":6287,"坫":6288,"坬":6289,"坭":6290,"坮":6291,"坯":6292,"坰":6293,"坳":6294,"坴":6295,"坵":6296,"坶":6297,"坷":6298,"坺":6299,"坻":6300,"坼":6301,"坽":6302,"坿":6303,"垂":6304,"垃":6305,"垅":6306,"垇":6307,"垈":6308,"型":6309,"垌":6310,"垍":6311,"垏":6312,"垐":6313,"垒":6314,"垓":6315,"垔":6316,"垕":6317,"垖":6318,"垘":6319,"垙":6320,"垚":6321,"垛":6322,"垜":6323,"垝":6324,"垞":6325,"垟":6326,"垠":6327,"垡":6328,"垢":6329,"垣":6330,"垤":6331,"垧":6332,"垨":6333,"垪":6334,"垫":6335,"垬":6336,"垮":6337,"垰":6338,"垱":6339,"垳":6340,"垵":6341,"垶":6342,"垸":6343,"垹":6344,"垻":6345,"垽":6346,"垾":6347,"埀":6348,"埂":6349,"埃":6350,"埆":6351,"埇":6352,"埈":6353,"埊":6354,"埋":6355,"埌":6356,"城":6357,"埏":6358,"埒":6359,"埓":6360,"埔":6361,"埕":6362,"埖":6363,"埗":6364,"埛":6365,"埜":6366,"埝":6367,"埞":6368,"域":6369,"埠":6370,"埡":6371,"埣":6372,"埤":6373,"埦":6374,"埨":6375,"埩":6376,"埫":6377,"埬":6378,"埭":6379,"埮":6380,"埰":6381,"埱":6382,"埴":6383,"埵":6384,"埶":6385,"執":6386,"培":6387,"基":6388,"埻":6389,"埼":6390,"埽":6391,"埿":6392,"堀":6393,"堂":6394,"堃":6395,"堄":6396,"堅":6397,"堆":6398,"堇":6399,"堈":6400,"堉":6401,"堊":6402,"堌":6403,"堕":6404,"堖":6405,"堗":6406,"堙":6407,"堜":6408,"堝":6409,"堞":6410,"堟":6411,"堠":6412,"堡":6413,"堤":6414,"堦":6415,"堧":6416,"堨":6417,"堪":6418,"堮":6419,"堯":6420,"堰":6421,"報":6422,"場":6423,"堵":6424,"堹":6425,"堺":6426,"堽":6427,"堿":6428,"塀":6429,"塁":6430,"塄":6431,"塅":6432,"塈":6433,"塉":6434,"塊":6435,"塋":6436,"塌":6437,"塍":6438,"塏":6439,"塐":6440,"塑":6441,"塒":6442,"塔":6443,"塕":6444,"塗":6445,"塘":6446,"塙":6447,"塚":6448,"塝":6449,"塞":6450,"塠":6451,"塡":6452,"塢":6453,"塤":6454,"塧":6455,"塨":6456,"塩":6457,"填":6458,"塬":6459,"塭":6460,"塰":6461,"塱":6462,"塲":6463,"塵":6464,"塸":6465,"塹":6466,"塼":6467,"塽":6468,"塾":6469,"墀":6470,"境":6471,"墅":6472,"墇":6473,"墈":6474,"墉":6475,"墊":6476,"墌":6477,"墎":6478,"墓":6479,"墔":6480,"墕":6481,"増":6482,"墘":6483,"墙":6484,"墜":6485,"增":6486,"墟":6487,"墠":6488,"墡":6489,"墥":6490,"墨":6491,"墩":6492,"墫":6493,"墬":6494,"墭":6495,"墮":6496,"墱":6497,"墳":6498,"墶":6499,"墹":6500,"墺":6501,"墻":6502,"墾":6503,"墿":6504,"壁":6505,"壂":6506,"壅":6507,"壆":6508,"壇":6509,"壊":6510,"壋":6511,"壌":6512,"壎":6513,"壐":6514,"壑":6515,"壒":6516,"壓":6517,"壔":6518,"壕":6519,"壖":6520,"壗":6521,"壘":6522,"壙":6523,"壚":6524,"壜":6525,"壞":6526,"壟":6527,"壠":6528,"壡":6529,"壢":6530,"壤":6531,"壥":6532,"壩":6533,"士":6534,"壬":6535,"壮":6536,"壯":6537,"声":6538,"壱":6539,"売":6540,"壳":6541,"壷":6542,"壹":6543,"壺":6544,"壻":6545,"壼":6546,"壽":6547,"壾":6548,"夀":6549,"夂":6550,"处":6551,"夆":6552,"备":6553,"変":6554,"夊":6555,"夋":6556,"夌":6557,"复":6558,"夏":6559,"夐":6560,"夒":6561,"夓":6562,"夔":6563,"夕":6564,"外":6565,"夘":6566,"夙":6567,"多":6568,"夛":6569,"夜":6570,"够":6571,"夢":6572,"夤":6573,"夥":6574,"大":6575,"夨":6576,"天":6577,"太":6578,"夫":6579,"夬":6580,"夭":6581,"央":6582,"夯":6583,"失":6584,"夲":6585,"头":6586,"夷":6587,"夸":6588,"夹":6589,"夺":6590,"夼":6591,"夾":6592,"奀":6593,"奂":6594,"奄":6595,"奇":6596,"奈":6597,"奉":6598,"奋":6599,"奌":6600,"奎":6601,"奏":6602,"奐":6603,"契":6604,"奓":6605,"奔":6606,"奕":6607,"奖":6608,"套":6609,"奘":6610,"奚":6611,"奛":6612,"奝":6613,"奠":6614,"奡":6615,"奢":6616,"奣":6617,"奥":6618,"奧":6619,"奨":6620,"奩":6621,"奪":6622,"奫":6623,"奬":6624,"奭":6625,"奮":6626,"奯":6627,"奰":6628,"奱":6629,"奲":6630,"女":6631,"奴":6632,"奵":6633,"奶":6634,"奸":6635,"她":6636,"好":6637,"妁":6638,"如":6639,"妃":6640,"妄":6641,"妆":6642,"妇":6643,"妈":6644,"妊":6645,"妋":6646,"妌":6647,"妍":6648,"妒":6649,"妓":6650,"妖":6651,"妘":6652,"妙":6653,"妛":6654,"妝":6655,"妞":6656,"妟":6657,"妠":6658,"妣":6659,"妤":6660,"妥":6661,"妧":6662,"妨":6663,"妬":6664,"妭":6665,"妮":6666,"妱":6667,"妲":6668,"妳":6669,"妷":6670,"妸":6671,"妹":6672,"妺":6673,"妻":6674,"妼":6675,"妾":6676,"姁":6677,"姃":6678,"姆":6679,"姈":6680,"姉":6681,"姊":6682,"始":6683,"姍":6684,"姐":6685,"姑":6686,"姒":6687,"姓":6688,"委":6689,"姖":6690,"姗":6691,"姙":6692,"姚":6693,"姜":6694,"姝":6695,"姞":6696,"姟":6697,"姣":6698,"姤":6699,"姥":6700,"姦":6701,"姧":6702,"姨":6703,"姪":6704,"姫":6705,"姬":6706,"姮":6707,"姯":6708,"姰":6709,"姱":6710,"姵":6711,"姶":6712,"姸":6713,"姹":6714,"姺":6715,"姻":6716,"姾":6717,"姿":6718,"娀":6719,"威":6720,"娃":6721,"娄":6722,"娅":6723,"娇":6724,"娉":6725,"娍":6726,"娎":6727,"娑":6728,"娓":6729,"娖":6730,"娗":6731,"娘":6732,"娙":6733,"娚":6734,"娛":6735,"娜":6736,"娞":6737,"娟":6738,"娠":6739,"娡":6740,"娣":6741,"娥":6742,"娧":6743,"娩":6744,"娫":6745,"娬":6746,"娯":6747,"娱":6748,"娴":6749,"娵":6750,"娶":6751,"娼":6752,"婀":6753,"婁":6754,"婆":6755,"婇":6756,"婈":6757,"婉":6758,"婑":6759,"婕":6760,"婘":6761,"婚":6762,"婞":6763,"婢":6764,"婤":6765,"婦":6766,"婧":6767,"婪":6768,"婬":6769,"婭":6770,"婴":6771,"婷":6772,"婺":6773,"婻":6774,"婼":6775,"婾":6776,"婿":6777,"媁":6778,"媄":6779,"媋":6780,"媒":6781,"媓":6782,"媖":6783,"媚":6784,"媛":6785,"媜":6786,"媞":6787,"媟":6788,"媤":6789,"媧":6790,"媯":6791,"媱":6792,"媲":6793,"媳":6794,"媵":6795,"媸":6796,"媹":6797,"媺":6798,"媼":6799,"媽":6800,"媾":6801,"媿":6802,"嫁":6803,"嫂":6804,"嫃":6805,"嫄":6806,"嫈":6807,"嫉":6808,"嫋":6809,"嫌":6810,"嫐":6811,"嫒":6812,"嫕":6813,"嫖":6814,"嫗":6815,"嫘":6816,"嫚":6817,"嫠":6818,"嫡":6819,"嫣":6820,"嫥":6821,"嫦":6822,"嫩":6823,"嫪":6824,"嫫":6825,"嫭":6826,"嫮":6827,"嫰":6828,"嫲":6829,"嫵":6830,"嫷":6831,"嫺":6832,"嫻":6833,"嫽":6834,"嫿":6835,"嬁":6836,"嬃":6837,"嬅":6838,"嬇":6839,"嬈":6840,"嬉":6841,"嬋":6842,"嬌":6843,"嬑":6844,"嬖":6845,"嬗":6846,"嬙":6847,"嬛":6848,"嬟":6849,"嬢":6850,"嬣":6851,"嬤":6852,"嬥":6853,"嬪":6854,"嬫":6855,"嬬":6856,"嬭":6857,"嬰":6858,"嬲":6859,"嬴":6860,"嬶":6861,"嬷":6862,"嬸":6863,"嬾":6864,"嬿":6865,"孀":6866,"孁":6867,"孃":6868,"孄":6869,"孆":6870,"孊":6871,"孋":6872,"孌":6873,"子":6874,"孑":6875,"孒":6876,"孔":6877,"孕":6878,"孖":6879,"字":6880,"存":6881,"孙":6882,"孚":6883,"孛":6884,"孜":6885,"孝":6886,"孟":6887,"季":6888,"孤":6889,"孥":6890,"学":6891,"孩":6892,"孫":6893,"孬":6894,"孮":6895,"孰":6896,"孱":6897,"孳":6898,"孴":6899,"孵":6900,"孶":6901,"學":6902,"孺":6903,"孽":6904,"孿":6905,"宀":6906,"宁":6907,"它":6908,"宄":6909,"宅":6910,"宆":6911,"宇":6912,"守":6913,"安":6914,"宋":6915,"完":6916,"宍":6917,"宏":6918,"宓":6919,"宕":6920,"宗":6921,"官":6922,"宙":6923,"定":6924,"宛":6925,"宜":6926,"宝":6927,"实":6928,"実":6929,"宠":6930,"审":6931,"客":6932,"宣":6933,"室":6934,"宥":6935,"宦":6936,"宧":6937,"宪":6938,"宫":6939,"宬":6940,"宮":6941,"宰":6942,"害":6943,"宴":6944,"宵":6945,"家":6946,"宷":6947,"宸":6948,"容":6949,"宽":6950,"宾":6951,"宿":6952,"寀":6953,"寁":6954,"寂":6955,"寃":6956,"寄":6957,"寅":6958,"密":6959,"寇":6960,"寉":6961,"寋":6962,"富":6963,"寍":6964,"寎":6965,"寐":6966,"寒":6967,"寓":6968,"寔":6969,"寕":6970,"寗":6971,"寘":6972,"寙":6973,"寚":6974,"寛":6975,"寜":6976,"寝":6977,"寞":6978,"察":6979,"寠":6980,"寡":6981,"寢":6982,"寤":6983,"寥":6984,"實":6985,"寧":6986,"寨":6987,"審":6988,"寪":6989,"寫":6990,"寬":6991,"寮":6992,"寯":6993,"寰":6994,"寳":6995,"寵":6996,"寶":6997,"寸":6998,"对":6999,"寺":7000,"寻":7001,"导":7002,"寽":7003,"対":7004,"寿":7005,"封":7006,"専":7007,"尃":7008,"射":7009,"尅":7010,"将":7011,"將":7012,"專":7013,"尉":7014,"尊":7015,"尋":7016,"對":7017,"導":7018,"小":7019,"少":7020,"尒":7021,"尓":7022,"尔":7023,"尕":7024,"尖":7025,"尗":7026,"尘":7027,"尙":7028,"尚":7029,"尜":7030,"尝":7031,"尞":7032,"尟":7033,"尠":7034,"尢":7035,"尣":7036,"尤":7037,"尧":7038,"尨":7039,"尪":7040,"尫":7041,"尬":7042,"尭":7043,"尰":7044,"就":7045,"尷":7046,"尸":7047,"尹":7048,"尺":7049,"尻":7050,"尼":7051,"尽":7052,"尾":7053,"尿":7054,"局":7055,"屁":7056,"层":7057,"屄":7058,"居":7059,"屆":7060,"屈":7061,"届":7062,"屋":7063,"屌":7064,"屍":7065,"屎":7066,"屏":7067,"屐":7068,"屑":7069,"屓":7070,"展":7071,"屘":7072,"屙":7073,"屚":7074,"屛":7075,"属":7076,"屠":7077,"屡":7078,"屢":7079,"層":7080,"履":7081,"屨":7082,"屬":7083,"屭":7084,"屮":7085,"屯":7086,"屰":7087,"山":7088,"屵":7089,"屶":7090,"屹":7091,"屺":7092,"屾":7093,"屿":7094,"岀":7095,"岁":7096,"岈":7097,"岉":7098,"岊":7099,"岌":7100,"岍":7101,"岏":7102,"岐":7103,"岑":7104,"岔":7105,"岗":7106,"岛":7107,"岜":7108,"岞":7109,"岠":7110,"岡":7111,"岢":7112,"岣":7113,"岦":7114,"岧":7115,"岨":7116,"岩":7117,"岪":7118,"岫":7119,"岬":7120,"岭":7121,"岯":7122,"岱":7123,"岳":7124,"岵":7125,"岶":7126,"岷":7127,"岸":7128,"岹":7129,"岺":7130,"岻":7131,"岼":7132,"岾":7133,"峀":7134,"峁":7135,"峅":7136,"峇":7137,"峊":7138,"峍":7139,"峏":7140,"峐":7141,"峑":7142,"峒":7143,"峕":7144,"峘":7145,"峙":7146,"峚":7147,"峝":7148,"峠":7149,"峡":7150,"峤":7151,"峥":7152,"峦":7153,"峨":7154,"峩":7155,"峪":7156,"峭":7157,"峮":7158,"峯":7159,"峰":7160,"峱":7161,"峴":7162,"峵":7163,"島":7164,"峸":7165,"峻":7166,"峼":7167,"峽":7168,"崀":7169,"崁":7170,"崂":7171,"崃":7172,"崆":7173,"崇":7174,"崋":7175,"崍":7176,"崎":7177,"崐":7178,"崑":7179,"崒":7180,"崔":7181,"崕":7182,"崖":7183,"崗":7184,"崘":7185,"崙":7186,"崚":7187,"崛":7188,"崞":7189,"崟":7190,"崠":7191,"崢":7192,"崤":7193,"崦":7194,"崧":7195,"崩":7196,"崪":7197,"崬":7198,"崮":7199,"崱":7200,"崴":7201,"崶":7202,"崹":7203,"崾":7204,"崿":7205,"嵂":7206,"嵆":7207,"嵇":7208,"嵊":7209,"嵋":7210,"嵌":7211,"嵎":7212,"嵐":7213,"嵒":7214,"嵓":7215,"嵕":7216,"嵖":7217,"嵗":7218,"嵙":7219,"嵛":7220,"嵜":7221,"嵞":7222,"嵠":7223,"嵩":7224,"嵫":7225,"嵬":7226,"嵭":7227,"嵯":7228,"嵳":7229,"嵶":7230,"嵸":7231,"嶁":7232,"嶂":7233,"嶃":7234,"嶄":7235,"嶇":7236,"嶈":7237,"嶋":7238,"嶌":7239,"嶍":7240,"嶐":7241,"嶓":7242,"嶔":7243,"嶕":7244,"嶗":7245,"嶙":7246,"嶚":7247,"嶝":7248,"嶠":7249,"嶢":7250,"嶤":7251,"嶦":7252,"嶧":7253,"嶨":7254,"嶪":7255,"嶬":7256,"嶭":7257,"嶮":7258,"嶰":7259,"嶴":7260,"嶷":7261,"嶸":7262,"嶹":7263,"嶺":7264,"嶼":7265,"嶽":7266,"巀":7267,"巂":7268,"巃":7269,"巅":7270,"巋":7271,"巌":7272,"巍":7273,"巎":7274,"巒":7275,"巓":7276,"巔":7277,"巖":7278,"巗":7279,"巘":7280,"巚":7281,"巛":7282,"川":7283,"州":7284,"巠":7285,"巡":7286,"巢":7287,"巣":7288,"巤":7289,"工":7290,"左":7291,"巧":7292,"巨":7293,"巩":7294,"巪":7295,"巫":7296,"差":7297,"己":7298,"已":7299,"巳":7300,"巴":7301,"巵":7302,"巶":7303,"巷":7304,"巻":7305,"巼":7306,"巽":7307,"巾":7308,"巿":7309,"帀":7310,"币":7311,"市":7312,"布":7313,"帅":7314,"帆":7315,"师":7316,"帋":7317,"希":7318,"帍":7319,"帑":7320,"帒":7321,"帔":7322,"帕":7323,"帖":7324,"帘":7325,"帙":7326,"帚":7327,"帛":7328,"帜":7329,"帝":7330,"帡":7331,"帥":7332,"带":7333,"帨":7334,"師":7335,"席":7336,"帮":7337,"帯":7338,"帰":7339,"帲":7340,"帳":7341,"帶":7342,"帷":7343,"常":7344,"帽":7345,"帾":7346,"帿":7347,"幀":7348,"幃":7349,"幄":7350,"幅":7351,"幇":7352,"幉":7353,"幋":7354,"幌":7355,"幎":7356,"幔":7357,"幕":7358,"幗":7359,"幘":7360,"幛":7361,"幞":7362,"幟":7363,"幡":7364,"幢":7365,"幣":7366,"幤":7367,"幪":7368,"幫":7369,"干":7370,"平":7371,"年":7372,"幵":7373,"并":7374,"幷":7375,"幸":7376,"幹":7377,"幺":7378,"幻":7379,"幼":7380,"幽":7381,"幾":7382,"广":7383,"庀":7384,"庁":7385,"広":7386,"庄":7387,"庆":7388,"庇":7389,"庈":7390,"床":7391,"庋":7392,"庎":7393,"序":7394,"庐":7395,"庒":7396,"库":7397,"应":7398,"底":7399,"庖":7400,"店":7401,"庙":7402,"庚":7403,"府":7404,"庞":7405,"废":7406,"庠":7407,"庤":7408,"庥":7409,"度":7410,"座":7411,"庪":7412,"庫":7413,"庬":7414,"庭":7415,"庯":7416,"庱":7417,"庲":7418,"庳":7419,"庵":7420,"庶":7421,"康":7422,"庸":7423,"庹":7424,"庾":7425,"庿":7426,"廁":7427,"廂":7428,"廃":7429,"廆":7430,"廇":7431,"廈":7432,"廉":7433,"廊":7434,"廋":7435,"廌":7436,"廍":7437,"廎":7438,"廏":7439,"廐":7440,"廑":7441,"廓":7442,"廔":7443,"廕":7444,"廖":7445,"廘":7446,"廙":7447,"廚":7448,"廛":7449,"廝":7450,"廞":7451,"廟":7452,"廠":7453,"廡":7454,"廢":7455,"廣":7456,"廤":7457,"廧":7458,"廨":7459,"廩":7460,"廬":7461,"廮":7462,"廰":7463,"廱":7464,"廳":7465,"廴":7466,"延":7467,"廷":7468,"廸":7469,"建":7470,"廻":7471,"廼":7472,"廾":7473,"廿":7474,"开":7475,"弁":7476,"异":7477,"弃":7478,"弄":7479,"弇":7480,"弈":7481,"弉":7482,"弊":7483,"弋":7484,"弌":7485,"弍":7486,"弎":7487,"式":7488,"弐":7489,"弑":7490,"弒":7491,"弓":7492,"弔":7493,"引":7494,"弖":7495,"弗":7496,"弘":7497,"弛":7498,"弟":7499,"张":7500,"弢":7501,"弣":7502,"弥":7503,"弦":7504,"弧":7505,"弨":7506,"弩":7507,"弭":7508,"弯":7509,"弰":7510,"弱":7511,"弴":7512,"張":7513,"弶":7514,"強":7515,"弸":7516,"弹":7517,"强":7518,"弼":7519,"弽":7520,"弾":7521,"彀":7522,"彁":7523,"彄":7524,"彅":7525,"彆":7526,"彈":7527,"彊":7528,"彌":7529,"彍":7530,"彎":7531,"彐":7532,"彑":7533,"归":7534,"当":7535,"彔":7536,"录":7537,"彖":7538,"彗":7539,"彘":7540,"彙":7541,"彜":7542,"彝":7543,"彠":7544,"彡":7545,"形":7546,"彤":7547,"彥":7548,"彦":7549,"彧":7550,"彩":7551,"彪":7552,"彫":7553,"彬":7554,"彭":7555,"彰":7556,"影":7557,"彲":7558,"彳":7559,"彴":7560,"彷":7561,"役":7562,"彼":7563,"彽":7564,"彿":7565,"往":7566,"征":7567,"徂":7568,"徃":7569,"径":7570,"待":7571,"徇":7572,"很":7573,"徉":7574,"徊":7575,"律":7576,"後":7577,"徏":7578,"徐":7579,"徑":7580,"徒":7581,"従":7582,"得":7583,"徘":7584,"徙":7585,"徛":7586,"徜":7587,"從":7588,"徠":7589,"御":7590,"徤":7591,"徧":7592,"徨":7593,"復":7594,"循":7595,"徬":7596,"徭":7597,"微":7598,"徯":7599,"徳":7600,"徴":7601,"徵":7602,"德":7603,"徸":7604,"徹":7605,"徼":7606,"徽":7607,"心":7608,"忄":7609,"必":7610,"忆":7611,"忉":7612,"忌":7613,"忍":7614,"忐":7615,"忑":7616,"忒":7617,"忖":7618,"志":7619,"忘":7620,"忙":7621,"応":7622,"忝":7623,"忞":7624,"忠":7625,"忡":7626,"忢":7627,"忤":7628,"忧":7629,"忩":7630,"快":7631,"忬":7632,"忭":7633,"忯":7634,"忰":7635,"忱":7636,"念":7637,"忸":7638,"忻":7639,"忽":7640,"忿":7641,"怀":7642,"态":7643,"怍":7644,"怎":7645,"怏":7646,"怐":7647,"怒":7648,"怕":7649,"怖":7650,"怗":7651,"怘":7652,"怙":7653,"怚":7654,"怛":7655,"怜":7656,"思":7657,"怠":7658,"怡":7659,"怤":7660,"急":7661,"怦":7662,"性":7663,"怨":7664,"怩":7665,"怪":7666,"怫":7667,"怯":7668,"怱":7669,"怳":7670,"怵":7671,"怹":7672,"怺":7673,"总":7674,"怿":7675,"恁":7676,"恂":7677,"恃":7678,"恆":7679,"恊":7680,"恋":7681,"恍":7682,"恐":7683,"恒":7684,"恔":7685,"恕":7686,"恖":7687,"恙":7688,"恚":7689,"恞":7690,"恟":7691,"恠":7692,"恢":7693,"恣":7694,"恤":7695,"恥":7696,"恨":7697,"恩":7698,"恪":7699,"恫":7700,"恬":7701,"恭":7702,"恮":7703,"息":7704,"恰":7705,"恵":7706,"恶":7707,"恷":7708,"恼":7709,"恿":7710,"悃":7711,"悄":7712,"悅":7713,"悆":7714,"悉":7715,"悊":7716,"悋":7717,"悌":7718,"悍":7719,"悒":7720,"悔":7721,"悕":7722,"悖":7723,"悚":7724,"悛":7725,"悝":7726,"悞":7727,"悟":7728,"悠":7729,"患":7730,"悤":7731,"悦":7732,"悧":7733,"您":7734,"悩":7735,"悪":7736,"悬":7737,"悰":7738,"悱":7739,"悲":7740,"悳":7741,"悴":7742,"悵":7743,"悶":7744,"悸":7745,"悺":7746,"悼":7747,"悽":7748,"惃":7749,"情":7750,"惆":7751,"惇":7752,"惊":7753,"惋":7754,"惎":7755,"惏":7756,"惑":7757,"惒":7758,"惓":7759,"惔":7760,"惕":7761,"惘":7762,"惚":7763,"惛":7764,"惜":7765,"惟":7766,"惠":7767,"惡":7768,"惢":7769,"惣":7770,"惤":7771,"惧":7772,"惨":7773,"惩":7774,"惯":7775,"惰":7776,"惱":7777,"惲":7778,"想":7779,"惴":7780,"惵":7781,"惶":7782,"惷":7783,"惸":7784,"惹":7785,"惺":7786,"惻":7787,"愀":7788,"愁":7789,"愃":7790,"愄":7791,"愆":7792,"愇":7793,"愈":7794,"愉":7795,"愍":7796,"愎":7797,"意":7798,"愐":7799,"愔":7800,"愕":7801,"愗":7802,"愙":7803,"愚":7804,"愛":7805,"愜":7806,"感":7807,"愠":7808,"愤":7809,"愧":7810,"愨":7811,"愫":7812,"愬":7813,"愭":7814,"愰":7815,"愴":7816,"愷":7817,"愸":7818,"愺":7819,"愻":7820,"愼":7821,"愽":7822,"愾":7823,"愿":7824,"慂":7825,"慄":7826,"慇":7827,"慈":7828,"慊":7829,"態":7830,"慌":7831,"慍":7832,"慎":7833,"慒":7834,"慕":7835,"慘":7836,"慙":7837,"慚":7838,"慜":7839,"慝":7840,"慟":7841,"慢":7842,"慣":7843,"慤":7844,"慥":7845,"慧":7846,"慨":7847,"慫":7848,"慬":7849,"慮":7850,"慯":7851,"慰":7852,"慳":7853,"慴":7854,"慵":7855,"慶":7856,"慷":7857,"慼":7858,"慽":7859,"慾":7860,"憂":7861,"憇":7862,"憊":7863,"憋":7864,"憍":7865,"憎":7866,"憐":7867,"憑":7868,"憓":7869,"憔":7870,"憕":7871,"憖":7872,"憘":7873,"憙":7874,"憚":7875,"憤":7876,"憧":7877,"憨":7878,"憩":7879,"憫":7880,"憬":7881,"憭":7882,"憮":7883,"憲":7884,"憶":7885,"憸":7886,"憺":7887,"憻":7888,"憼":7889,"憾":7890,"懀":7891,"懂":7892,"懃":7893,"懆":7894,"懇":7895,"懈":7896,"應":7897,"懊":7898,"懋":7899,"懌":7900,"懍":7901,"懐":7902,"懒":7903,"懢":7904,"懣":7905,"懦":7906,"懬":7907,"懲":7908,"懴":7909,"懵":7910,"懶":7911,"懷":7912,"懸":7913,"懺":7914,"懼":7915,"懽":7916,"懾":7917,"懿":7918,"戀":7919,"戇":7920,"戈":7921,"戉":7922,"戊":7923,"戋":7924,"戌":7925,"戍":7926,"戎":7927,"戏":7928,"成":7929,"我":7930,"戒":7931,"戔":7932,"戕":7933,"或":7934,"战":7935,"戚":7936,"戛":7937,"戝":7938,"戞":7939,"戟":7940,"戠":7941,"戡":7942,"戢":7943,"戣":7944,"戦":7945,"戧":7946,"戩":7947,"截":7948,"戫":7949,"戬":7950,"戮":7951,"戯":7952,"戰":7953,"戱":7954,"戲":7955,"戳":7956,"戴":7957,"戵":7958,"戶":7959,"户":7960,"戸":7961,"戻":7962,"戾":7963,"房":7964,"所":7965,"扁":7966,"扃":7967,"扆":7968,"扇":7969,"扈":7970,"扉":7971,"手":7972,"扌":7973,"才":7974,"扎":7975,"扐":7976,"扑":7977,"扒":7978,"打":7979,"扔":7980,"払":7981,"扖":7982,"托":7983,"扚":7984,"扛":7985,"扜":7986,"扞":7987,"扠":7988,"扢":7989,"扣":7990,"执":7991,"扨":7992,"扩":7993,"扫":7994,"扬":7995,"扭":7996,"扮":7997,"扯":7998,"扰":7999,"扱":8000,"扳":8001,"扵":8002,"扶":8003,"批":8004,"扼":8005,"找":8006,"承":8007,"技":8008,"抂":8009,"抃":8010,"抄":8011,"抅":8012,"抉":8013,"把":8014,"抑":8015,"抒":8016,"抓":8017,"抔":8018,"投":8019,"抖":8020,"抗":8021,"折":8022,"抚":8023,"抛":8024,"抜":8025,"択":8026,"抢":8027,"护":8028,"报":8029,"抦":8030,"抨":8031,"抪":8032,"披":8033,"抬":8034,"抱":8035,"抳":8036,"抵":8037,"抹":8038,"抺":8039,"押":8040,"抽":8041,"拁":8042,"拂":8043,"拄":8044,"担":8045,"拆":8046,"拇":8047,"拈":8048,"拉":8049,"拊":8050,"拋":8051,"拌":8052,"拍":8053,"拎":8054,"拏":8055,"拐":8056,"拑":8057,"拒":8058,"拓":8059,"拔":8060,"拕":8061,"拖":8062,"拗":8063,"拘":8064,"拙":8065,"拚":8066,"招":8067,"拜":8068,"拝":8069,"拟":8070,"拠":8071,"拡":8072,"拥":8073,"拨":8074,"择":8075,"拪":8076,"括":8077,"拭":8078,"拮":8079,"拯":8080,"拱":8081,"拳":8082,"拵":8083,"拶":8084,"拷":8085,"拺":8086,"拼":8087,"拽":8088,"拾":8089,"拿":8090,"持":8091,"挂":8092,"指":8093,"挈":8094,"按":8095,"挊":8096,"挌":8097,"挍":8098,"挏":8099,"挐":8100,"挑":8101,"挒":8102,"挖":8103,"挙":8104,"挛":8105,"挝":8106,"挞":8107,"挟":8108,"挠":8109,"挡":8110,"挢":8111,"挣":8112,"挥":8113,"挧":8114,"挨":8115,"挩":8116,"挪":8117,"挫":8118,"振":8119,"挵":8120,"挹":8121,"挺":8122,"挽":8123,"挾":8124,"挿":8125,"捂":8126,"捃":8127,"捄":8128,"捅":8129,"捆":8130,"捉":8131,"捋":8132,"捌":8133,"捍":8134,"捏":8135,"捐":8136,"捒":8137,"捔":8138,"捕":8139,"捗":8140,"捜":8141,"捝":8142,"捞":8143,"损":8144,"换":8145,"捥":8146,"捧":8147,"捨":8148,"捩":8149,"捫":8150,"捭":8151,"据":8152,"捲":8153,"捴":8154,"捶":8155,"捷":8156,"捸":8157,"捺":8158,"捻":8159,"捼":8160,"捽":8161,"捿":8162,"掀":8163,"掃":8164,"掄":8165,"掇":8166,"授":8167,"掉":8168,"掊":8169,"掌":8170,"掎":8171,"掏":8172,"掐":8173,"排":8174,"掔":8175,"掖":8176,"掘":8177,"掛":8178,"掞":8179,"掟":8180,"掠":8181,"採":8182,"探":8183,"掣":8184,"掤":8185,"接":8186,"控":8187,"推":8188,"掩":8189,"措":8190,"掫":8191,"掬":8192,"掮":8193,"掯":8194,"掰":8195,"掲":8196,"掴":8197,"掵":8198,"掸":8199,"掻":8200,"掽":8201,"掾":8202,"揀":8203,"揃":8204,"揄":8205,"揅":8206,"揆":8207,"揉":8208,"描":8209,"提":8210,"插":8211,"揔":8212,"揕":8213,"揖":8214,"揚":8215,"換":8216,"揜":8217,"揞":8218,"揟":8219,"握":8220,"揣":8221,"揥":8222,"揩":8223,"揫":8224,"揭":8225,"揮":8226,"揲":8227,"援":8228,"揵":8229,"揶":8230,"揷":8231,"揹":8232,"揺":8233,"揽":8234,"揾":8235,"搀":8236,"搄":8237,"搆":8238,"搊":8239,"損":8240,"搏":8241,"搓":8242,"搔":8243,"搖":8244,"搗":8245,"搜":8246,"搞":8247,"搠":8248,"搢":8249,"搤":8250,"搦":8251,"搧":8252,"搨":8253,"搩":8254,"搪":8255,"搬":8256,"搭":8257,"搴":8258,"搶":8259,"携":8260,"搽":8261,"搾":8262,"摁":8263,"摂":8264,"摃":8265,"摄":8266,"摆":8267,"摇":8268,"摊":8269,"摋":8270,"摎":8271,"摑":8272,"摔":8273,"摘":8274,"摛":8275,"摠":8276,"摧":8277,"摩":8278,"摭":8279,"摯":8280,"摴":8281,"摵":8282,"摶":8283,"摸":8284,"摹":8285,"摺":8286,"摻":8287,"摽":8288,"撃":8289,"撅":8290,"撇":8291,"撈":8292,"撐":8293,"撑":8294,"撒":8295,"撓":8296,"撕":8297,"撙":8298,"撚":8299,"撝":8300,"撞":8301,"撢":8302,"撣":8303,"撤":8304,"撥":8305,"撦":8306,"撩":8307,"撫":8308,"撬":8309,"播":8310,"撮":8311,"撰":8312,"撲":8313,"撳":8314,"撹":8315,"撻":8316,"撼":8317,"撾":8318,"撿":8319,"擁":8320,"擂":8321,"擄":8322,"擅":8323,"擇":8324,"擊":8325,"擋":8326,"操":8327,"擎":8328,"擐":8329,"擒":8330,"擔":8331,"擘":8332,"據":8333,"擠":8334,"擡":8335,"擢":8336,"擣":8337,"擤":8338,"擥":8339,"擦":8340,"擧":8341,"擫":8342,"擬":8343,"擯":8344,"擰":8345,"擱":8346,"擲":8347,"擴":8348,"擶":8349,"擷":8350,"擺":8351,"擻":8352,"擼":8353,"擽":8354,"擾":8355,"擿":8356,"攀":8357,"攄":8358,"攆":8359,"攏":8360,"攔":8361,"攖":8362,"攘":8363,"攙":8364,"攜":8365,"攝":8366,"攞":8367,"攟":8368,"攡":8369,"攢":8370,"攣":8371,"攤":8372,"攧":8373,"攩":8374,"攪":8375,"攫":8376,"攬":8377,"支":8378,"攰":8379,"攲":8380,"攳":8381,"攴":8382,"攵":8383,"收":8384,"攷":8385,"攸":8386,"改":8387,"攻":8388,"攽":8389,"放":8390,"政":8391,"故":8392,"效":8393,"敉":8394,"敌":8395,"敍":8396,"敎":8397,"敏":8398,"救":8399,"敒":8400,"敔":8401,"敕":8402,"敖":8403,"敗":8404,"敘":8405,"教":8406,"敝":8407,"敞":8408,"敟":8409,"敢":8410,"散":8411,"敦":8412,"敫":8413,"敬":8414,"敭":8415,"数":8416,"敲":8417,"敳":8418,"整":8419,"敵":8420,"敷":8421,"數":8422,"敻":8423,"敾":8424,"斁":8425,"斂":8426,"斃":8427,"斄":8428,"斅":8429,"斆":8430,"文":8431,"斈":8432,"斉":8433,"斋":8434,"斌":8435,"斎":8436,"斐":8437,"斑":8438,"斓":8439,"斕":8440,"斗":8441,"料":8442,"斛":8443,"斜":8444,"斝":8445,"斟":8446,"斠":8447,"斡":8448,"斤":8449,"斥":8450,"斧":8451,"斫":8452,"斬":8453,"断":8454,"斯":8455,"新":8456,"斲":8457,"斷":8458,"方":8459,"於":8460,"施":8461,"斿":8462,"旀":8463,"旁":8464,"旂":8465,"旃":8466,"旄":8467,"旅":8468,"旆":8469,"旈":8470,"旉":8471,"旋":8472,"旌":8473,"旎":8474,"族":8475,"旐":8476,"旒":8477,"旕":8478,"旖":8479,"旗":8480,"旙":8481,"旛":8482,"旟":8483,"无":8484,"旡":8485,"既":8486,"旣":8487,"旤":8488,"日":8489,"旦":8490,"旧":8491,"旨":8492,"早":8493,"旬":8494,"旭":8495,"旮":8496,"旰":8497,"旱":8498,"旲":8499,"旵":8500,"时":8501,"旹":8502,"旺":8503,"旻":8504,"旼":8505,"旽":8506,"旾":8507,"旿":8508,"昀":8509,"昂":8510,"昃":8511,"昄":8512,"昆":8513,"昇":8514,"昉":8515,"昊":8516,"昋":8517,"昌":8518,"昍":8519,"明":8520,"昏":8521,"昐":8522,"昑":8523,"易":8524,"昔":8525,"昕":8526,"昖":8527,"昙":8528,"昚":8529,"昛":8530,"昜":8531,"昝":8532,"昞":8533,"星":8534,"映":8535,"昢":8536,"昤":8537,"春":8538,"昧":8539,"昨":8540,"昩":8541,"昪":8542,"昫":8543,"昭":8544,"昮":8545,"是":8546,"昰":8547,"昱":8548,"昳":8549,"昴":8550,"昵":8551,"昶":8552,"昷":8553,"昺":8554,"昻":8555,"昼":8556,"显":8557,"昿":8558,"晁":8559,"時":8560,"晃":8561,"晄":8562,"晅":8563,"晈":8564,"晉":8565,"晊":8566,"晋":8567,"晌":8568,"晍":8569,"晏":8570,"晒":8571,"晓":8572,"晔":8573,"晖":8574,"晗":8575,"晙":8576,"晚":8577,"晛":8578,"晜":8579,"晝":8580,"晞":8581,"晟":8582,"晠":8583,"晡":8584,"晢":8585,"晣":8586,"晤":8587,"晥":8588,"晦":8589,"晧":8590,"晨":8591,"晩":8592,"晪":8593,"晫":8594,"晬":8595,"晭":8596,"普":8597,"景":8598,"晰":8599,"晳":8600,"晴":8601,"晶":8602,"晷":8603,"晸":8604,"晹":8605,"智":8606,"晻":8607,"晼":8608,"晾":8609,"暀":8610,"暁":8611,"暂":8612,"暄":8613,"暅":8614,"暆":8615,"暇":8616,"暈":8617,"暉":8618,"暊":8619,"暋":8620,"暍":8621,"暎":8622,"暐":8623,"暑":8624,"暒":8625,"暕":8626,"暖":8627,"暗":8628,"暘":8629,"暜":8630,"暝":8631,"暟":8632,"暠":8633,"暢":8634,"暤":8635,"暦":8636,"暨":8637,"暫":8638,"暭":8639,"暮":8640,"暱":8641,"暲":8642,"暳":8643,"暴":8644,"暶":8645,"暸":8646,"暹":8647,"暻":8648,"暼":8649,"暾":8650,"暿":8651,"曀":8652,"曁":8653,"曂":8654,"曄":8655,"曅":8656,"曆":8657,"曇":8658,"曈":8659,"曉":8660,"曌":8661,"曏":8662,"曑":8663,"曒":8664,"曔":8665,"曕":8666,"曖":8667,"曙":8668,"曚":8669,"曛":8670,"曜":8671,"曝":8672,"曠":8673,"曣":8674,"曤":8675,"曦":8676,"曧":8677,"曩":8678,"曬":8679,"曮":8680,"曰":8681,"曱":8682,"曲":8683,"曳":8684,"更":8685,"曵":8686,"曶":8687,"曷":8688,"書":8689,"曹":8690,"曺":8691,"曻":8692,"曼":8693,"曽":8694,"曾":8695,"替":8696,"最":8697,"會":8698,"朅":8699,"月":8700,"有":8701,"朊":8702,"朋":8703,"服":8704,"朏":8705,"朐":8706,"朒":8707,"朓":8708,"朔":8709,"朕":8710,"朖":8711,"朗":8712,"望":8713,"朝":8714,"朞":8715,"期":8716,"朥":8717,"朦":8718,"朧":8719,"木":8720,"朩":8721,"未":8722,"末":8723,"本":8724,"札":8725,"朮":8726,"术":8727,"朱":8728,"朳":8729,"朴":8730,"朵":8731,"朶":8732,"朷":8733,"机":8734,"朽":8735,"朾":8736,"朿":8737,"杀":8738,"杁":8739,"杂":8740,"权":8741,"杄":8742,"杅":8743,"杆":8744,"杈":8745,"杉":8746,"杋":8747,"杌":8748,"李":8749,"杏":8750,"材":8751,"村":8752,"杓":8753,"杕":8754,"杖":8755,"杙":8756,"杜":8757,"杝":8758,"杞":8759,"束":8760,"杠":8761,"条":8762,"杢":8763,"杣":8764,"杤":8765,"来":8766,"杦":8767,"杨":8768,"杪":8769,"杬":8770,"杭":8771,"杮":8772,"杯":8773,"杰":8774,"東":8775,"杲":8776,"杳":8777,"杴":8778,"杵":8779,"杷":8780,"杻":8781,"杼":8782,"松":8783,"板":8784,"极":8785,"枃":8786,"构":8787,"枅":8788,"枇":8789,"枉":8790,"枋":8791,"枌":8792,"枎":8793,"枏":8794,"析":8795,"枒":8796,"枓":8797,"枕":8798,"枖":8799,"林":8800,"枘":8801,"枚":8802,"枛":8803,"果":8804,"枝":8805,"枟":8806,"枠":8807,"枡":8808,"枢":8809,"枣":8810,"枥":8811,"枦":8812,"枩":8813,"枪":8814,"枫":8815,"枭":8816,"枮":8817,"枯":8818,"枰":8819,"枲":8820,"枳":8821,"枴":8822,"枵":8823,"架":8824,"枷":8825,"枸":8826,"枹":8827,"枻":8828,"枼":8829,"枾":8830,"枿":8831,"柁":8832,"柂":8833,"柃":8834,"柄":8835,"柅":8836,"柊":8837,"柍":8838,"柎":8839,"柏":8840,"某":8841,"柑":8842,"柒":8843,"染":8844,"柔":8845,"柕":8846,"柗":8847,"柘":8848,"柙":8849,"柚":8850,"柜":8851,"柝":8852,"柞":8853,"柟":8854,"柠":8855,"柢":8856,"柣":8857,"柤":8858,"查":8859,"柧":8860,"柩":8861,"柬":8862,"柮":8863,"柯":8864,"柰":8865,"柱":8866,"柳":8867,"柴":8868,"柵":8869,"柷":8870,"柸":8871,"柹":8872,"査":8873,"柾":8874,"柿":8875,"栁":8876,"栂":8877,"栃":8878,"栄":8879,"标":8880,"栈":8881,"栋":8882,"栌":8883,"栍":8884,"栏":8885,"栐":8886,"树":8887,"栒":8888,"栓":8889,"栖":8890,"栗":8891,"栘":8892,"栜":8893,"栝":8894,"栞":8895,"栟":8896,"校":8897,"栢":8898,"栩":8899,"株":8900,"栫":8901,"栬":8902,"栭":8903,"栯":8904,"栱":8905,"栲":8906,"栳":8907,"栴":8908,"样":8909,"核":8910,"根":8911,"栻":8912,"格":8913,"栽":8914,"栿":8915,"桀":8916,"桁":8917,"桂":8918,"桃":8919,"桄":8920,"桅":8921,"框":8922,"案":8923,"桉":8924,"桌":8925,"桍":8926,"桎":8927,"桐":8928,"桑":8929,"桒":8930,"桓":8931,"桔":8932,"桕":8933,"桙":8934,"桛":8935,"桜":8936,"桝":8937,"桟":8938,"桢":8939,"档":8940,"桥":8941,"桦":8942,"桧":8943,"桫":8944,"桭":8945,"桯":8946,"桱":8947,"桲":8948,"桴":8949,"桵":8950,"桶":8951,"桷":8952,"桹":8953,"桼":8954,"桾":8955,"桿":8956,"梀":8957,"梁":8958,"梂":8959,"梃":8960,"梄":8961,"梅":8962,"梆":8963,"梈":8964,"梉":8965,"梍":8966,"梏":8967,"梐":8968,"梓":8969,"梔":8970,"梗":8971,"梘":8972,"梛":8973,"梜":8974,"條":8975,"梟":8976,"梠":8977,"梢":8978,"梣":8979,"梥":8980,"梦":8981,"梧":8982,"梨":8983,"梪":8984,"梫":8985,"梭":8986,"梮":8987,"梯":8988,"械":8989,"梱":8990,"梲":8991,"梳":8992,"梴":8993,"梵":8994,"梶":8995,"梹":8996,"梺":8997,"梻":8998,"梼":8999,"梽":9000,"检":9001,"棃":9002,"棄":9003,"棆":9004,"棈":9005,"棉":9006,"棊":9007,"棋":9008,"棍":9009,"棐":9010,"棒":9011,"棓":9012,"棔":9013,"棕":9014,"棖":9015,"棗":9016,"棘":9017,"棙":9018,"棚":9019,"棟":9020,"棠":9021,"棡":9022,"棣":9023,"棤":9024,"棧":9025,"棨":9026,"棩":9027,"棫":9028,"棭":9029,"森":9030,"棯":9031,"棰":9032,"棱":9033,"棲":9034,"棳":9035,"棵":9036,"棶":9037,"棹":9038,"棺":9039,"棻":9040,"棼":9041,"棽":9042,"棿":9043,"椀":9044,"椅":9045,"椆":9046,"椇":9047,"椈":9048,"椋":9049,"椌":9050,"植":9051,"椎":9052,"椏":9053,"椐":9054,"椑":9055,"椒":9056,"椓":9057,"椙":9058,"椚":9059,"椛":9060,"検":9061,"椡":9062,"椢":9063,"椣":9064,"椥":9065,"椦":9066,"椧":9067,"椨":9068,"椪":9069,"椰":9070,"椱":9071,"椳":9072,"椴":9073,"椵":9074,"椶":9075,"椷":9076,"椹":9077,"椽":9078,"椿":9079,"楂":9080,"楃":9081,"楅":9082,"楈":9083,"楉":9084,"楊":9085,"楎":9086,"楒":9087,"楓":9088,"楔":9089,"楕":9090,"楖":9091,"楗":9092,"楙":9093,"楚":9094,"楛":9095,"楜":9096,"楝":9097,"楞":9098,"楠":9099,"楡":9100,"楢":9101,"楣":9102,"楤":9103,"楧":9104,"楨":9105,"楩":9106,"楪":9107,"楫":9108,"業":9109,"楮":9110,"楯":9111,"楰":9112,"楲":9113,"楳":9114,"楴":9115,"極":9116,"楷":9117,"楸":9118,"楹":9119,"楺":9120,"楻":9121,"楼":9122,"楽":9123,"楾":9124,"楿":9125,"榀":9126,"榁":9127,"概":9128,"榃":9129,"榄":9130,"榆":9131,"榉":9132,"榊":9133,"榎":9134,"榐":9135,"榑":9136,"榔":9137,"榕":9138,"榖":9139,"榘":9140,"榛":9141,"榜":9142,"榟":9143,"榠":9144,"榣":9145,"榥":9146,"榦":9147,"榧":9148,"榨":9149,"榩":9150,"榪":9151,"榭":9152,"榮":9153,"榯":9154,"榰":9155,"榱":9156,"榲":9157,"榴":9158,"榶":9159,"榷":9160,"榺":9161,"榻":9162,"榼":9163,"榾":9164,"榿":9165,"槀":9166,"槁":9167,"槃":9168,"槇":9169,"槊":9170,"構":9171,"槌":9172,"槍":9173,"槎":9174,"槐":9175,"槑":9176,"槓":9177,"槗":9178,"様":9179,"槙":9180,"槛":9181,"槝":9182,"槞":9183,"槟":9184,"槢":9185,"槤":9186,"槨":9187,"槩":9188,"槪":9189,"槫":9190,"槭":9191,"槮":9192,"槰":9193,"槱":9194,"槲":9195,"槳":9196,"槴":9197,"槵":9198,"槹":9199,"槺":9200,"槻":9201,"槽":9202,"槿":9203,"樁":9204,"樂":9205,"樃":9206,"樅":9207,"樇":9208,"樉":9209,"樊":9210,"樋":9211,"樌":9212,"樍":9213,"樏":9214,"樑":9215,"樒":9216,"樓":9217,"樔":9218,"樕":9219,"樗":9220,"樘":9221,"標":9222,"樛":9223,"樝":9224,"樞":9225,"樟":9226,"模":9227,"樣":9228,"樨":9229,"権":9230,"横":9231,"樫":9232,"樮":9233,"樱":9234,"樴":9235,"樵":9236,"樶":9237,"樷":9238,"樸":9239,"樹":9240,"樺":9241,"樻":9242,"樽":9243,"樾":9244,"樿":9245,"橄":9246,"橅":9247,"橆":9248,"橇":9249,"橈":9250,"橉":9251,"橊":9252,"橋":9253,"橏":9254,"橐":9255,"橑":9256,"橓":9257,"橖":9258,"橘":9259,"橙":9260,"橚":9261,"橛":9262,"橞":9263,"機":9264,"橡":9265,"橢":9266,"橤":9267,"橦":9268,"橧":9269,"橪":9270,"橫":9271,"橱":9272,"橲":9273,"橳":9274,"橿":9275,"檀":9276,"檄":9277,"檆":9278,"檉":9279,"檊":9280,"檋":9281,"檍":9282,"檎":9283,"檐":9284,"檑":9285,"檓":9286,"檔":9287,"檗":9288,"檛":9289,"檜":9290,"檝":9291,"檞":9292,"檟":9293,"檠":9294,"檢":9295,"檣":9296,"檥":9297,"檦":9298,"檨":9299,"檪":9300,"檫":9301,"檬":9302,"檮":9303,"檯":9304,"檳":9305,"檸":9306,"檻":9307,"檾":9308,"檿":9309,"櫁":9310,"櫂":9311,"櫃":9312,"櫆":9313,"櫑":9314,"櫓":9315,"櫔":9316,"櫚":9317,"櫛":9318,"櫜":9319,"櫝":9320,"櫞":9321,"櫟":9322,"櫢":9323,"櫤":9324,"櫥":9325,"櫧":9326,"櫨":9327,"櫪":9328,"櫬":9329,"櫲":9330,"櫳":9331,"櫵":9332,"櫶":9333,"櫸":9334,"櫺":9335,"櫻":9336,"櫽":9337,"欂":9338,"欄":9339,"欅":9340,"欈":9341,"欉":9342,"權":9343,"欌":9344,"欏":9345,"欐":9346,"欑":9347,"欒":9348,"欓":9349,"欖":9350,"欗":9351,"欛":9352,"欝":9353,"欞":9354,"欟":9355,"欠":9356,"次":9357,"欢":9358,"欣":9359,"欤":9360,"欥":9361,"欧":9362,"欨":9363,"欬":9364,"欲":9365,"欵":9366,"欷":9367,"欸":9368,"欹":9369,"欺":9370,"欻":9371,"欽":9372,"款":9373,"欿":9374,"歂":9375,"歃":9376,"歆":9377,"歇":9378,"歉":9379,"歊":9380,"歌":9381,"歎":9382,"歐":9383,"歓":9384,"歔":9385,"歕":9386,"歖":9387,"歙":9388,"歛":9389,"歜":9390,"歟":9391,"歠":9392,"歡":9393,"止":9394,"正":9395,"此":9396,"步":9397,"武":9398,"歧":9399,"歩":9400,"歪":9401,"歬":9402,"歯":9403,"歰":9404,"歲":9405,"歳":9406,"歴":9407,"歵":9408,"歷":9409,"歸":9410,"歹":9411,"歺":9412,"死":9413,"歼":9414,"歿":9415,"殀":9416,"殁":9417,"殂":9418,"殃":9419,"殄":9420,"殆":9421,"殉":9422,"殊":9423,"残":9424,"殕":9425,"殖":9426,"殘":9427,"殛":9428,"殞":9429,"殤":9430,"殩":9431,"殪":9432,"殫":9433,"殭":9434,"殮":9435,"殯":9436,"殱":9437,"殲":9438,"殳":9439,"殴":9440,"段":9441,"殷":9442,"殸":9443,"殹":9444,"殺":9445,"殻":9446,"殼":9447,"殽":9448,"殾":9449,"殿":9450,"毀":9451,"毁":9452,"毂":9453,"毅":9454,"毆":9455,"毇":9456,"毉":9457,"毋":9458,"毌":9459,"母":9460,"毎":9461,"每":9462,"毐":9463,"毒":9464,"毓":9465,"比":9466,"毕":9467,"毖":9468,"毗":9469,"毘":9470,"毙":9471,"毛":9472,"毟":9473,"毣":9474,"毦":9475,"毨":9476,"毫":9477,"毬":9478,"毯":9479,"毳":9480,"毹":9481,"毼":9482,"毽":9483,"氂":9484,"氄":9485,"氅":9486,"氈":9487,"氊":9488,"氍":9489,"氎":9490,"氏":9491,"氐":9492,"民":9493,"氓":9494,"气":9495,"氕":9496,"気":9497,"氘":9498,"氚":9499,"氛":9500,"氟":9501,"氡":9502,"氢":9503,"氣":9504,"氤":9505,"氦":9506,"氧":9507,"氨":9508,"氪":9509,"氫":9510,"氬":9511,"氮":9512,"氯":9513,"氳":9514,"水":9515,"氵":9516,"氶":9517,"氷":9518,"永":9519,"氹":9520,"氺":9521,"氾":9522,"汀":9523,"汁":9524,"求":9525,"汆":9526,"汇":9527,"汈":9528,"汉":9529,"汊":9530,"汋":9531,"汎":9532,"汐":9533,"汔":9534,"汕":9535,"汗":9536,"汙":9537,"汚":9538,"汛":9539,"汜":9540,"汝":9541,"汞":9542,"江":9543,"池":9544,"污":9545,"汤":9546,"汧":9547,"汨":9548,"汪":9549,"汫":9550,"汭":9551,"汮":9552,"汰":9553,"汲":9554,"汴":9555,"汶":9556,"決":9557,"汽":9558,"汾":9559,"沁":9560,"沂":9561,"沃":9562,"沄":9563,"沅":9564,"沆":9565,"沇":9566,"沈":9567,"沉":9568,"沌":9569,"沍":9570,"沏":9571,"沐":9572,"沒":9573,"沓":9574,"沔":9575,"沖":9576,"沘":9577,"沙":9578,"沚":9579,"沛":9580,"沜":9581,"沟":9582,"没":9583,"沢":9584,"沧":9585,"沩":9586,"沪":9587,"沫":9588,"沬":9589,"沭":9590,"沮":9591,"沰":9592,"沱":9593,"河":9594,"沴":9595,"沶":9596,"沸":9597,"油":9598,"治":9599,"沼":9600,"沽":9601,"沾":9602,"沿":9603,"況":9604,"泂":9605,"泃":9606,"泄":9607,"泅":9608,"泆":9609,"泉":9610,"泊":9611,"泌":9612,"泍":9613,"泐":9614,"泒":9615,"泓":9616,"泔":9617,"法":9618,"泖":9619,"泗":9620,"泙":9621,"泚":9622,"泛":9623,"泜":9624,"泝":9625,"泞":9626,"泟":9627,"泠":9628,"泡":9629,"波":9630,"泣":9631,"泥":9632,"注":9633,"泪":9634,"泫":9635,"泮":9636,"泯":9637,"泰":9638,"泱":9639,"泳":9640,"泵":9641,"泶":9642,"泷":9643,"泸":9644,"泻":9645,"泼":9646,"泽":9647,"泾":9648,"洁":9649,"洄":9650,"洈":9651,"洊":9652,"洋":9653,"洌":9654,"洎":9655,"洑":9656,"洒":9657,"洗":9658,"洙":9659,"洚":9660,"洛":9661,"洞":9662,"洟":9663,"洣":9664,"洤":9665,"津":9666,"洦":9667,"洧":9668,"洨":9669,"洩":9670,"洪":9671,"洫":9672,"洭":9673,"洮":9674,"洱":9675,"洲":9676,"洳":9677,"洵":9678,"洶":9679,"洷":9680,"洸":9681,"洹":9682,"洺":9683,"活":9684,"洼":9685,"洽":9686,"派":9687,"洿":9688,"流":9689,"浄":9690,"浅":9691,"浇":9692,"浊":9693,"测":9694,"济":9695,"浏":9696,"浐":9697,"浑":9698,"浒":9699,"浓":9700,"浔":9701,"浖":9702,"浘":9703,"浙":9704,"浚":9705,"浛":9706,"浜":9707,"浞":9708,"浟":9709,"浠":9710,"浣":9711,"浤":9712,"浦":9713,"浩":9714,"浪":9715,"浬":9716,"浭":9717,"浮":9718,"浯":9719,"浰":9720,"浴":9721,"海":9722,"浸":9723,"浹":9724,"浻":9725,"浼":9726,"浽":9727,"浿":9728,"涁":9729,"涂":9730,"涅":9731,"涇":9732,"消":9733,"涉":9734,"涌":9735,"涍":9736,"涎":9737,"涑":9738,"涓":9739,"涔":9740,"涕":9741,"涙":9742,"涛":9743,"涜":9744,"涟":9745,"涡":9746,"润":9747,"涩":9748,"涪":9749,"涫":9750,"涬":9751,"涮":9752,"涯":9753,"液":9754,"涴":9755,"涵":9756,"涸":9757,"涼":9758,"涿":9759,"淀":9760,"淂":9761,"淃":9762,"淄":9763,"淅":9764,"淆":9765,"淇":9766,"淈":9767,"淋":9768,"淌":9769,"淍":9770,"淎":9771,"淏":9772,"淐":9773,"淑":9774,"淒":9775,"淓":9776,"淕":9777,"淖":9778,"淘":9779,"淙":9780,"淚":9781,"淛":9782,"淝":9783,"淞":9784,"淠":9785,"淡":9786,"淤":9787,"淥":9788,"淦":9789,"淨":9790,"淩":9791,"淪":9792,"淫":9793,"淬":9794,"淮":9795,"淯":9796,"淰":9797,"深":9798,"淲":9799,"淳":9800,"淵":9801,"淶":9802,"混":9803,"淸":9804,"淹":9805,"淺":9806,"添":9807,"淼":9808,"渃":9809,"清":9810,"渇":9811,"済":9812,"渉":9813,"渊":9814,"渋":9815,"渐":9816,"渓":9817,"渔":9818,"渕":9819,"渗":9820,"渙":9821,"渚":9822,"減":9823,"渝":9824,"渞":9825,"渟":9826,"渠":9827,"渡":9828,"渢":9829,"渣":9830,"渤":9831,"渥":9832,"渦":9833,"渧":9834,"温":9835,"渫":9836,"測":9837,"渭":9838,"港":9839,"渲":9840,"渴":9841,"渶":9842,"游":9843,"渺":9844,"渼":9845,"渽":9846,"渾":9847,"湃":9848,"湄":9849,"湅":9850,"湉":9851,"湊":9852,"湋":9853,"湍":9854,"湎":9855,"湏":9856,"湑":9857,"湓":9858,"湔":9859,"湕":9860,"湖":9861,"湘":9862,"湛":9863,"湜":9864,"湝":9865,"湞":9866,"湟":9867,"湣":9868,"湥":9869,"湦":9870,"湧":9871,"湨":9872,"湩":9873,"湪":9874,"湫":9875,"湮":9876,"湯":9877,"湲":9878,"湳":9879,"湴":9880,"湶":9881,"湺":9882,"湾":9883,"湿":9884,"満":9885,"溂":9886,"溃":9887,"溉":9888,"溌":9889,"溍":9890,"溏":9891,"源":9892,"準":9893,"溘":9894,"溙":9895,"溜":9896,"溝":9897,"溟":9898,"溠":9899,"溢":9900,"溤":9901,"溥":9902,"溦":9903,"溧":9904,"溪":9905,"溫":9906,"溮":9907,"溯":9908,"溱":9909,"溲":9910,"溳":9911,"溴":9912,"溵":9913,"溶":9914,"溷":9915,"溺":9916,"溽":9917,"溿":9918,"滀":9919,"滁":9920,"滂":9921,"滃":9922,"滄":9923,"滅":9924,"滆":9925,"滇":9926,"滈":9927,"滉":9928,"滊":9929,"滋":9930,"滌":9931,"滍":9932,"滎":9933,"滏":9934,"滑":9935,"滓":9936,"滔":9937,"滕":9938,"滘":9939,"滙":9940,"滚":9941,"滝":9942,"滞":9943,"满":9944,"滤":9945,"滦":9946,"滨":9947,"滩":9948,"滫":9949,"滬":9950,"滯":9951,"滲":9952,"滳":9953,"滴":9954,"滶":9955,"滷":9956,"滸":9957,"滹":9958,"滻":9959,"滾":9960,"滿":9961,"漁":9962,"漂":9963,"漅":9964,"漆":9965,"漈":9966,"漉":9967,"漊":9968,"漋":9969,"漏":9970,"漑":9971,"漒":9972,"漓":9973,"演":9974,"漕":9975,"漖":9976,"漚":9977,"漠":9978,"漢":9979,"漣":9980,"漦":9981,"漨":9982,"漩":9983,"漪":9984,"漫":9985,"漬":9986,"漭":9987,"漯":9988,"漱":9989,"漲":9990,"漳":9991,"漴":9992,"漵":9993,"漶":9994,"漷":9995,"漸":9996,"漹":9997,"漻":9998,"漼":9999,"漾":10000,"漿":10001,"潁":10002,"潅":10003,"潇":10004,"潍":10005,"潎":10006,"潏":10007,"潑":10008,"潓":10009,"潔":10010,"潕":10011,"潖":10012,"潗":10013,"潘":10014,"潙":10015,"潚":10016,"潛":10017,"潜":10018,"潝":10019,"潞":10020,"潟":10021,"潡":10022,"潢":10023,"潤":10024,"潥":10025,"潦":10026,"潬":10027,"潭":10028,"潮":10029,"潯":10030,"潰":10031,"潴":10032,"潵":10033,"潸":10034,"潺":10035,"潼":10036,"潽":10037,"潾":10038,"潿":10039,"澀":10040,"澁":10041,"澂":10042,"澄":10043,"澅":10044,"澆":10045,"澇":10046,"澈":10047,"澉":10048,"澌":10049,"澍":10050,"澎":10051,"澐":10052,"澒":10053,"澔":10054,"澗":10055,"澚":10056,"澜":10057,"澟":10058,"澠":10059,"澡":10060,"澣":10061,"澤":10062,"澥":10063,"澧":10064,"澨":10065,"澪":10066,"澫":10067,"澭":10068,"澮":10069,"澯":10070,"澰":10071,"澱":10072,"澳":10073,"澴":10074,"澶":10075,"澹":10076,"激":10077,"濁":10078,"濂":10079,"濃":10080,"濆":10081,"濇":10082,"濉":10083,"濊":10084,"濑":10085,"濒":10086,"濔":10087,"濕":10088,"濘":10089,"濚":10090,"濛":10091,"濞":10092,"濟":10093,"濠":10094,"濡":10095,"濤":10096,"濩":10097,"濫":10098,"濬":10099,"濮":10100,"濯":10101,"濰":10102,"濱":10103,"濳":10104,"濵":10105,"濶":10106,"濹":10107,"濺":10108,"濼":10109,"濾":10110,"瀀":10111,"瀁":10112,"瀂":10113,"瀅":10114,"瀆":10115,"瀇":10116,"瀉":10117,"瀋":10118,"瀍":10119,"瀏":10120,"瀑":10121,"瀕":10122,"瀗":10123,"瀘":10124,"瀚":10125,"瀛":10126,"瀜":10127,"瀝":10128,"瀞":10129,"瀟":10130,"瀣":10131,"瀦":10132,"瀧":10133,"瀨":10134,"瀬":10135,"瀰":10136,"瀲":10137,"瀴":10138,"瀷":10139,"瀹":10140,"瀼":10141,"瀾":10142,"灃":10143,"灄":10144,"灈":10145,"灉":10146,"灊":10147,"灋":10148,"灌":10149,"灏":10150,"灐":10151,"灑":10152,"灕":10153,"灘":10154,"灙":10155,"灝":10156,"灞":10157,"灟":10158,"灠":10159,"灣":10160,"灤":10161,"灨":10162,"火":10163,"灬":10164,"灭":10165,"灮":10166,"灯":10167,"灰":10168,"灵":10169,"灶":10170,"灸":10171,"灺":10172,"灼":10173,"災":10174,"灾":10175,"灿":10176,"炁":10177,"炅":10178,"炆":10179,"炉":10180,"炊":10181,"炌":10182,"炎":10183,"炏":10184,"炒":10185,"炓":10186,"炔":10187,"炕":10188,"炖":10189,"炗":10190,"炘":10191,"炙":10192,"炚":10193,"炜":10194,"炟":10195,"炡":10196,"炤":10197,"炥":10198,"炫":10199,"炬":10200,"炭":10201,"炮":10202,"炯":10203,"炳":10204,"炴":10205,"炷":10206,"炸":10207,"点":10208,"為":10209,"炻":10210,"炼":10211,"烂":10212,"烇":10213,"烈":10214,"烉":10215,"烊":10216,"烋":10217,"烏":10218,"烑":10219,"烒":10220,"烔":10221,"烕":10222,"烘":10223,"烙":10224,"烛":10225,"烜":10226,"烝":10227,"烟":10228,"烤":10229,"烦":10230,"烧":10231,"烨":10232,"烩":10233,"烫":10234,"烬":10235,"热":10236,"烯":10237,"烱":10238,"烶":10239,"烷":10240,"烹":10241,"烺":10242,"烽":10243,"焄":10244,"焈":10245,"焉":10246,"焌":10247,"焏":10248,"焔":10249,"焕":10250,"焗":10251,"焙":10252,"焚":10253,"焛":10254,"焜":10255,"焞":10256,"焟":10257,"焠":10258,"無":10259,"焢":10260,"焦":10261,"焮":10262,"焯":10263,"焰":10264,"焱":10265,"焲":10266,"焴":10267,"然":10268,"焻":10269,"焼":10270,"焽":10271,"焿":10272,"煁":10273,"煃":10274,"煅":10275,"煆":10276,"煇":10277,"煉":10278,"煊":10279,"煌":10280,"煎":10281,"煐":10282,"煒":10283,"煓":10284,"煕":10285,"煖":10286,"煙":10287,"煚":10288,"煜":10289,"煝":10290,"煞":10291,"煟":10292,"煠":10293,"煢":10294,"煣":10295,"煤":10296,"煥":10297,"煦":10298,"照":10299,"煨":10300,"煩":10301,"煬":10302,"煮":10303,"煲":10304,"煳":10305,"煸":10306,"煻":10307,"煽":10308,"煿":10309,"熀":10310,"熄":10311,"熅":10312,"熇":10313,"熈":10314,"熉":10315,"熊":10316,"熏":10317,"熒":10318,"熔":10319,"熕":10320,"熗":10321,"熙":10322,"熛":10323,"熜":10324,"熞":10325,"熟":10326,"熠":10327,"熥":10328,"熨":10329,"熩":10330,"熬":10331,"熮":10332,"熯":10333,"熱":10334,"熲":10335,"熹":10336,"熺":10337,"熼":10338,"熾":10339,"熿":10340,"燁":10341,"燂":10342,"燃":10343,"燄":10344,"燆":10345,"燇":10346,"燈":10347,"燉":10348,"燊":10349,"燋":10350,"燎":10351,"燏":10352,"燐":10353,"燒":10354,"燓":10355,"燔":10356,"燕":10357,"燗":10358,"燙":10359,"燚":10360,"燜":10361,"營":10362,"燠":10363,"燥":10364,"燦":10365,"燧":10366,"燨":10367,"燬":10368,"燭":10369,"燮":10370,"燴":10371,"燵":10372,"燹":10373,"燻":10374,"燼":10375,"燾":10376,"燿":10377,"爀":10378,"爁":10379,"爆":10380,"爋":10381,"爌":10382,"爍":10383,"爐":10384,"爔":10385,"爕":10386,"爚":10387,"爛":10388,"爝":10389,"爤":10390,"爨":10391,"爪":10392,"爫":10393,"爬":10394,"爭":10395,"爯":10396,"爰":10397,"爱":10398,"爲":10399,"爵":10400,"父":10401,"爷":10402,"爸":10403,"爹":10404,"爺":10405,"爻":10406,"爼":10407,"爽":10408,"爾":10409,"爿":10410,"牀":10411,"牁":10412,"牂":10413,"牃":10414,"牆":10415,"片":10416,"版":10417,"牋":10418,"牌":10419,"牍":10420,"牒":10421,"牓":10422,"牕":10423,"牖":10424,"牗":10425,"牘":10426,"牙":10427,"牚":10428,"牛":10429,"牝":10430,"牟":10431,"牠":10432,"牡":10433,"牢":10434,"牤":10435,"牦":10436,"牧":10437,"物":10438,"牯":10439,"牲":10440,"牴":10441,"牵":10442,"牷":10443,"牸":10444,"特":10445,"牺":10446,"牻":10447,"牼":10448,"牽":10449,"牾":10450,"牿":10451,"犀":10452,"犁":10453,"犂":10454,"犄":10455,"犇":10456,"犍":10457,"犎":10458,"犒":10459,"犕":10460,"犖":10461,"犛":10462,"犟":10463,"犠":10464,"犢":10465,"犧":10466,"犨":10467,"犬":10468,"犭":10469,"犮":10470,"犯":10471,"犰":10472,"犱":10473,"犲":10474,"犴":10475,"状":10476,"犸":10477,"犹":10478,"犼":10479,"犾":10480,"狀":10481,"狁":10482,"狂":10483,"狃":10484,"狄":10485,"狆":10486,"狋":10487,"狍":10488,"狎":10489,"狐":10490,"狒":10491,"狔":10492,"狖":10493,"狗":10494,"狘":10495,"狙":10496,"狛":10497,"狟":10498,"狠":10499,"狡":10500,"狢":10501,"狥":10502,"狦":10503,"狨":10504,"狩":10505,"独":10506,"狭":10507,"狮":10508,"狱":10509,"狳":10510,"狴":10511,"狷":10512,"狸":10513,"狹":10514,"狻":10515,"狼":10516,"狽":10517,"狾":10518,"猁":10519,"猅":10520,"猇":10521,"猊":10522,"猋":10523,"猎":10524,"猒":10525,"猓":10526,"猖":10527,"猗":10528,"猚":10529,"猛":10530,"猜":10531,"猝":10532,"猞":10533,"猟":10534,"猢":10535,"猥":10536,"猨":10537,"猩":10538,"猪":10539,"猫":10540,"猬":10541,"献":10542,"猯":10543,"猰":10544,"猱":10545,"猳":10546,"猴":10547,"猶":10548,"猷":10549,"猹":10550,"猺":10551,"猻":10552,"猽":10553,"猾":10554,"猿":10555,"獀":10556,"獁":10557,"獂":10558,"獃":10559,"獄":10560,"獅":10561,"獍":10562,"獎":10563,"獏":10564,"獐":10565,"獒":10566,"獓":10567,"獗":10568,"獘":10569,"獙":10570,"獞":10571,"獠":10572,"獢":10573,"獣":10574,"獦":10575,"獨":10576,"獪":10577,"獫":10578,"獬":10579,"獮":10580,"獯":10581,"獰":10582,"獱":10583,"獲":10584,"獳":10585,"獵":10586,"獶":10587,"獷":10588,"獸":10589,"獺":10590,"獻":10591,"獼":10592,"獾":10593,"玀":10594,"玁":10595,"玃":10596,"玄":10597,"玅":10598,"玆":10599,"率":10600,"玈":10601,"玉":10602,"玊":10603,"王":10604,"玎":10605,"玏":10606,"玐":10607,"玑":10608,"玒":10609,"玓":10610,"玕":10611,"玖":10612,"玗":10613,"玘":10614,"玛":10615,"玜":10616,"玝":10617,"玞":10618,"玟":10619,"玠":10620,"玡":10621,"玢":10622,"玤":10623,"玥":10624,"玦":10625,"玧":10626,"玨":10627,"玩":10628,"玪":10629,"玫":10630,"玭":10631,"玮":10632,"环":10633,"现":10634,"玲":10635,"玳":10636,"玵":10637,"玷":10638,"玹":10639,"玺":10640,"玻":10641,"玼":10642,"珀":10643,"珂":10644,"珄":10645,"珅":10646,"珆":10647,"珈":10648,"珉":10649,"珊":10650,"珋":10651,"珌":10652,"珍":10653,"珎":10654,"珏":10655,"珑":10656,"珒":10657,"珓":10658,"珖":10659,"珘":10660,"珙":10661,"珝":10662,"珞":10663,"珠":10664,"珡":10665,"珣":10666,"珤":10667,"珥":10668,"珦":10669,"珧":10670,"珩":10671,"珪":10672,"珫":10673,"班":10674,"珮":10675,"珱":10676,"珲":10677,"珴":10678,"珵":10679,"珷":10680,"珸":10681,"珹":10682,"珺":10683,"珽":10684,"現":10685,"琀":10686,"琁":10687,"球":10688,"琄":10689,"琅":10690,"理":10691,"琇":10692,"琈":10693,"琉":10694,"琊":10695,"琌":10696,"琍":10697,"琏":10698,"琑":10699,"琓":10700,"琔":10701,"琕":10702,"琖":10703,"琙":10704,"琚":10705,"琛":10706,"琠":10707,"琡":10708,"琢":10709,"琤":10710,"琥":10711,"琦":10712,"琨":10713,"琪":10714,"琫":10715,"琬":10716,"琭":10717,"琮":10718,"琯":10719,"琰":10720,"琱":10721,"琲":10722,"琳":10723,"琴":10724,"琵":10725,"琶":10726,"琸":10727,"琹":10728,"琺":10729,"琻":10730,"琼":10731,"琿":10732,"瑀":10733,"瑁":10734,"瑄":10735,"瑆":10736,"瑇":10737,"瑈":10738,"瑊":10739,"瑋":10740,"瑌":10741,"瑍":10742,"瑎":10743,"瑑":10744,"瑒":10745,"瑓":10746,"瑔":10747,"瑕":10748,"瑗":10749,"瑙":10750,"瑚":10751,"瑛":10752,"瑜":10753,"瑝":10754,"瑞":10755,"瑟":10756,"瑠":10757,"瑡":10758,"瑢":10759,"瑣":10760,"瑤":10761,"瑥":10762,"瑧":10763,"瑨":10764,"瑩":10765,"瑪":10766,"瑫":10767,"瑬":10768,"瑭":10769,"瑮":10770,"瑯":10771,"瑰":10772,"瑱":10773,"瑲":10774,"瑳":10775,"瑴":10776,"瑶":10777,"瑹":10778,"瑽":10779,"瑾":10780,"璀":10781,"璁":10782,"璂":10783,"璃":10784,"璄":10785,"璅":10786,"璆":10787,"璇":10788,"璈":10789,"璉":10790,"璋":10791,"璐":10792,"璒":10793,"璔":10794,"璘":10795,"璙":10796,"璚":10797,"璜":10798,"璝":10799,"璞":10800,"璟":10801,"璠":10802,"璡":10803,"璢":10804,"璣":10805,"璥":10806,"璦":10807,"璧":10808,"璨":10809,"璩":10810,"璪":10811,"璫":10812,"璬":10813,"璮":10814,"璯":10815,"環":10816,"璱":10817,"璲":10818,"璵":10819,"璷":10820,"璸":10821,"璹":10822,"璽":10823,"璿":10824,"瓆":10825,"瓈":10826,"瓊":10827,"瓌":10828,"瓏":10829,"瓐":10830,"瓔":10831,"瓖":10832,"瓘":10833,"瓚":10834,"瓛":10835,"瓜":10836,"瓞":10837,"瓠":10838,"瓡":10839,"瓢":10840,"瓣":10841,"瓤":10842,"瓦":10843,"瓧":10844,"瓩":10845,"瓫":10846,"瓮":10847,"瓯":10848,"瓰":10849,"瓱":10850,"瓲":10851,"瓴":10852,"瓶":10853,"瓷":10854,"瓸":10855,"瓺":10856,"瓿":10857,"甁":10858,"甂":10859,"甃":10860,"甄":10861,"甅":10862,"甌":10863,"甍":10864,"甎":10865,"甑":10866,"甒":10867,"甓":10868,"甕":10869,"甗":10870,"甘":10871,"甚":10872,"甛":10873,"甜":10874,"甝":10875,"甞":10876,"生":10877,"甡":10878,"產":10879,"産":10880,"甤":10881,"甥":10882,"甦":10883,"用":10884,"甩":10885,"甪":10886,"甫":10887,"甬":10888,"甭":10889,"甯":10890,"田":10891,"由":10892,"甲":10893,"申":10894,"甴":10895,"电":10896,"男":10897,"甸":10898,"町":10899,"画":10900,"甽":10901,"甾":10902,"甿":10903,"畀":10904,"畄":10905,"畅":10906,"畇":10907,"畈":10908,"畉":10909,"畊":10910,"畋":10911,"界":10912,"畍":10913,"畎":10914,"畏":10915,"畐":10916,"畑":10917,"畓":10918,"畔":10919,"畖":10920,"畗":10921,"留":10922,"畚":10923,"畛":10924,"畜":10925,"畝":10926,"畠":10927,"畡":10928,"畢":10929,"畤":10930,"略":10931,"畦":10932,"畧":10933,"畩":10934,"番":10935,"畫":10936,"畬":10937,"畭":10938,"畯":10939,"異":10940,"畱":10941,"畲":10942,"畳":10943,"畴":10944,"畵":10945,"當":10946,"畷":10947,"畸":10948,"畹":10949,"畺":10950,"畼":10951,"畾":10952,"畿":10953,"疁":10954,"疃":10955,"疆":10956,"疇":10957,"疊":10958,"疋":10959,"疍":10960,"疎":10961,"疏":10962,"疐":10963,"疑":10964,"疒":10965,"疔":10966,"疗":10967,"疙":10968,"疚":10969,"疝":10970,"疣":10971,"疤":10972,"疥":10973,"疫":10974,"疯":10975,"疰":10976,"疱":10977,"疲":10978,"疳":10979,"疵":10980,"疸":10981,"疹":10982,"疼":10983,"疽":10984,"疾":10985,"痀":10986,"痂":10987,"痃":10988,"病":10989,"痆":10990,"症":10991,"痊":10992,"痍":10993,"痎":10994,"痒":10995,"痓":10996,"痔":10997,"痕":10998,"痘":10999,"痙":11000,"痛":11001,"痞":11002,"痟":11003,"痠":11004,"痢":11005,"痣":11006,"痤":11007,"痧":11008,"痩":11009,"痬":11010,"痰":11011,"痱":11012,"痲":11013,"痳":11014,"痴":11015,"痹":11016,"痺":11017,"痼":11018,"痾":11019,"痿":11020,"瘀":11021,"瘁":11022,"瘂":11023,"瘃":11024,"瘉":11025,"瘋":11026,"瘍":11027,"瘕":11028,"瘖":11029,"瘙":11030,"瘜":11031,"瘞":11032,"瘟":11033,"瘠":11034,"瘡":11035,"瘢":11036,"瘣":11037,"瘤":11038,"瘦":11039,"瘧":11040,"瘩":11041,"瘭":11042,"瘰":11043,"瘳":11044,"瘴":11045,"瘵":11046,"瘸":11047,"瘻":11048,"瘾":11049,"癀":11050,"療":11051,"癃":11052,"癆":11053,"癇":11054,"癈":11055,"癊":11056,"癋":11057,"癌":11058,"癍":11059,"癎":11060,"癒":11061,"癖":11062,"癘":11063,"癜":11064,"癡":11065,"癤":11066,"癥":11067,"癧":11068,"癩":11069,"癪":11070,"癫":11071,"癬":11072,"癭":11073,"癮":11074,"癯":11075,"癰":11076,"癲":11077,"癶":11078,"癸":11079,"発":11080,"登":11081,"發":11082,"白":11083,"百":11084,"癿":11085,"皀":11086,"皁":11087,"皂":11088,"皃":11089,"的":11090,"皆":11091,"皇":11092,"皈":11093,"皋":11094,"皎":11095,"皐":11096,"皓":11097,"皕":11098,"皖":11099,"皙":11100,"皚":11101,"皛":11102,"皜":11103,"皝":11104,"皞":11105,"皤":11106,"皦":11107,"皪":11108,"皮":11109,"皰":11110,"皴":11111,"皶":11112,"皷":11113,"皸":11114,"皹":11115,"皺":11116,"皿":11117,"盂":11118,"盃":11119,"盅":11120,"盆":11121,"盈":11122,"盉":11123,"益":11124,"盌":11125,"盍":11126,"盎":11127,"盐":11128,"监":11129,"盒":11130,"盔":11131,"盖":11132,"盗":11133,"盘":11134,"盛":11135,"盜":11136,"盞":11137,"盟":11138,"盠":11139,"盡":11140,"監":11141,"盤":11142,"盥":11143,"盦":11144,"盧":11145,"盨":11146,"盩":11147,"盪":11148,"盬":11149,"目":11150,"盱":11151,"盲":11152,"直":11153,"相":11154,"盼":11155,"盾":11156,"省":11157,"眄":11158,"眇":11159,"眈":11160,"眉":11161,"看":11162,"県":11163,"眎":11164,"眕":11165,"眘":11166,"眙":11167,"眚":11168,"眛":11169,"眜":11170,"眞":11171,"真":11172,"眠":11173,"眡":11174,"眤":11175,"眥":11176,"眦":11177,"眨":11178,"眩":11179,"眭":11180,"眯":11181,"眴":11182,"眷":11183,"眸":11184,"眺":11185,"眼":11186,"眾":11187,"着":11188,"睁":11189,"睆":11190,"睇":11191,"睋":11192,"睍":11193,"睒":11194,"睔":11195,"睖":11196,"睚":11197,"睛":11198,"睜":11199,"睞":11200,"睟":11201,"睡":11202,"睢":11203,"督":11204,"睥":11205,"睦":11206,"睨":11207,"睫":11208,"睴":11209,"睹":11210,"睺":11211,"睽":11212,"睾":11213,"睿":11214,"瞀":11215,"瞇":11216,"瞋":11217,"瞌":11218,"瞎":11219,"瞐":11220,"瞑":11221,"瞒":11222,"瞕":11223,"瞞":11224,"瞟":11225,"瞠":11226,"瞢":11227,"瞥":11228,"瞧":11229,"瞨":11230,"瞩":11231,"瞪":11232,"瞫":11233,"瞬":11234,"瞭":11235,"瞮":11236,"瞯":11237,"瞰":11238,"瞱":11239,"瞳":11240,"瞶":11241,"瞹":11242,"瞻":11243,"瞼":11244,"瞽":11245,"瞿":11246,"矇":11247,"矍":11248,"矔":11249,"矗":11250,"矚":11251,"矛":11252,"矜":11253,"矞":11254,"矟":11255,"矠":11256,"矢":11257,"矣":11258,"知":11259,"矦":11260,"矧":11261,"矩":11262,"矬":11263,"短":11264,"矮":11265,"矯":11266,"矰":11267,"矱":11268,"石":11269,"矴":11270,"矶":11271,"矸":11272,"矺":11273,"矻":11274,"矼":11275,"矽":11276,"矿":11277,"码":11278,"砂":11279,"砅":11280,"砈":11281,"砌":11282,"砍":11283,"砑":11284,"砒":11285,"研":11286,"砕":11287,"砖":11288,"砟":11289,"砠":11290,"砡":11291,"砢":11292,"砣":11293,"砥":11294,"砦":11295,"砧":11296,"砫":11297,"砬":11298,"砭":11299,"砮":11300,"砰":11301,"砲":11302,"砳":11303,"破":11304,"砵":11305,"砷":11306,"砸":11307,"砺":11308,"砻":11309,"砾":11310,"砿":11311,"础":11312,"硃":11313,"硅":11314,"硇":11315,"硈":11316,"硍":11317,"硎":11318,"硏":11319,"硐":11320,"硒":11321,"硕":11322,"硚":11323,"硜":11324,"硝":11325,"硤":11326,"硨":11327,"硫":11328,"硬":11329,"硭":11330,"确":11331,"硯":11332,"硲":11333,"硴":11334,"硼":11335,"硾":11336,"碁":11337,"碆":11338,"碇":11339,"碉":11340,"碌":11341,"碍":11342,"碎":11343,"碏":11344,"碑":11345,"碓":11346,"碕":11347,"碖":11348,"碗":11349,"碘":11350,"碙":11351,"碚":11352,"碟":11353,"碡":11354,"碣":11355,"碤":11356,"碧":11357,"碩":11358,"碪":11359,"碫":11360,"碭":11361,"碯":11362,"碰":11363,"碱":11364,"碳":11365,"碵":11366,"碶":11367,"確":11368,"碻":11369,"碼":11370,"碽":11371,"碾":11372,"磁":11373,"磅":11374,"磆":11375,"磈":11376,"磊":11377,"磋":11378,"磌":11379,"磎":11380,"磏":11381,"磐":11382,"磑":11383,"磔":11384,"磕":11385,"磗":11386,"磘":11387,"磚":11388,"磝":11389,"磡":11390,"磤":11391,"磧":11392,"磨":11393,"磪":11394,"磬":11395,"磯":11396,"磱":11397,"磲":11398,"磴":11399,"磵":11400,"磷":11401,"磺":11402,"磻":11403,"磼":11404,"磽":11405,"磾":11406,"礀":11407,"礁":11408,"礄":11409,"礆":11410,"礌":11411,"礎":11412,"礏":11413,"礐":11414,"礑":11415,"礒":11416,"礖":11417,"礙":11418,"礚":11419,"礜":11420,"礝":11421,"礟":11422,"礠":11423,"礡":11424,"礤":11425,"礥":11426,"礦":11427,"礩":11428,"礪":11429,"礫":11430,"礬":11431,"礮":11432,"礱":11433,"礴":11434,"礵":11435,"示":11436,"礻":11437,"礼":11438,"礽":11439,"社":11440,"礿":11441,"祀":11442,"祁":11443,"祂":11444,"祄":11445,"祅":11446,"祆":11447,"祇":11448,"祈":11449,"祉":11450,"祊":11451,"祋":11452,"祏":11453,"祐":11454,"祓":11455,"祔":11456,"祕":11457,"祖":11458,"祗":11459,"祘":11460,"祚":11461,"祛":11462,"祜":11463,"祝":11464,"神":11465,"祟":11466,"祠":11467,"祢":11468,"祤":11469,"祥":11470,"祦":11471,"祧":11472,"票":11473,"祩":11474,"祫":11475,"祬":11476,"祭":11477,"祯":11478,"祲":11479,"祳":11480,"祷":11481,"祸":11482,"祹":11483,"祺":11484,"祾":11485,"祿":11486,"禀":11487,"禁":11488,"禃":11489,"禄":11490,"禅":11491,"禊":11492,"禋":11493,"禌":11494,"禍":11495,"禎":11496,"福":11497,"禐":11498,"禑":11499,"禔":11500,"禕":11501,"禖":11502,"禘":11503,"禚":11504,"禛":11505,"禜":11506,"禝":11507,"禟":11508,"禡":11509,"禦":11510,"禧":11511,"禨":11512,"禩":11513,"禪":11514,"禬":11515,"禮":11516,"禯":11517,"禰":11518,"禱":11519,"禳":11520,"禴":11521,"禵":11522,"禶":11523,"禷":11524,"禸":11525,"禹":11526,"禺":11527,"离":11528,"禼":11529,"禽":11530,"禾":11531,"禿":11532,"秀":11533,"私":11534,"秃":11535,"秆":11536,"秇":11537,"秈":11538,"秉":11539,"秊":11540,"秋":11541,"秌":11542,"种":11543,"科":11544,"秒":11545,"秔":11546,"秕":11547,"秘":11548,"秞":11549,"租":11550,"秡":11551,"秢":11552,"秣":11553,"秤":11554,"秥":11555,"秦":11556,"秧":11557,"秩":11558,"秬":11559,"秭":11560,"积":11561,"称":11562,"秸":11563,"秺":11564,"移":11565,"秼":11566,"秽":11567,"稀":11568,"稂":11569,"稃":11570,"稅":11571,"稈":11572,"稉":11573,"稊":11574,"程":11575,"稌":11576,"稍":11577,"税":11578,"稒":11579,"稔":11580,"稕":11581,"稗":11582,"稘":11583,"稙":11584,"稚":11585,"稜":11586,"稞":11587,"稟":11588,"稠":11589,"稣":11590,"稥":11591,"稭":11592,"種":11593,"稱":11594,"稲":11595,"稶":11596,"稷":11597,"稹":11598,"稻":11599,"稼":11600,"稽":11601,"稾":11602,"稿":11603,"穀":11604,"穂":11605,"穄":11606,"穆":11607,"穈":11608,"穉":11609,"穊":11610,"穋":11611,"穌":11612,"積":11613,"穎":11614,"穏":11615,"穐":11616,"穗":11617,"穙":11618,"穜":11619,"穝":11620,"穠":11621,"穡":11622,"穢":11623,"穣":11624,"穧":11625,"穨":11626,"穩":11627,"穪":11628,"穫":11629,"穬":11630,"穭":11631,"穰":11632,"穴":11633,"穵":11634,"究":11635,"穷":11636,"穹":11637,"空":11638,"穽":11639,"穿":11640,"突":11641,"窂":11642,"窃":11643,"窄":11644,"窅":11645,"窆":11646,"窈":11647,"窋":11648,"窑":11649,"窒":11650,"窓":11651,"窕":11652,"窖":11653,"窗":11654,"窘":11655,"窝":11656,"窞":11657,"窟":11658,"窠":11659,"窣":11660,"窨":11661,"窩":11662,"窪":11663,"窫":11664,"窬":11665,"窮":11666,"窯":11667,"窰":11668,"窳":11669,"窴":11670,"窶":11671,"窺":11672,"窻":11673,"窼":11674,"窿":11675,"竀":11676,"竃":11677,"竄":11678,"竅":11679,"竆":11680,"竇":11681,"竈":11682,"竉":11683,"竊":11684,"立":11685,"竍":11686,"竎":11687,"竏":11688,"竑":11689,"竒":11690,"竓":11691,"竕":11692,"竗":11693,"站":11694,"竚":11695,"竜":11696,"竝":11697,"竞":11698,"竟":11699,"章":11700,"竡":11701,"竢":11702,"竣":11703,"童":11704,"竦":11705,"竧":11706,"竩":11707,"竪":11708,"竫":11709,"竭":11710,"端":11711,"竰":11712,"竴":11713,"競":11714,"竸":11715,"竹":11716,"竺":11717,"竽":11718,"竿":11719,"笂":11720,"笃":11721,"笄":11722,"笆":11723,"笇":11724,"笈":11725,"笊":11726,"笋":11727,"笏":11728,"笑":11729,"笒":11730,"笔":11731,"笘":11732,"笙":11733,"笛":11734,"笞":11735,"笟":11736,"笠":11737,"笥":11738,"符":11739,"笨":11740,"笪":11741,"第":11742,"笭":11743,"笮":11744,"笰":11745,"笱":11746,"笳":11747,"笴":11748,"笵":11749,"笶":11750,"笹":11751,"笻":11752,"笼":11753,"笽":11754,"筅":11755,"筆":11756,"筇":11757,"筈":11758,"等":11759,"筊":11760,"筋":11761,"筌":11762,"筍":11763,"筎":11764,"筏":11765,"筐":11766,"筑":11767,"筒":11768,"答":11769,"策":11770,"筛":11771,"筝":11772,"筟":11773,"筠":11774,"筥":11775,"筦":11776,"筧":11777,"筩":11778,"筬":11779,"筭":11780,"筮":11781,"筯":11782,"筰":11783,"筱":11784,"筲":11785,"筳":11786,"筴":11787,"筵":11788,"筶":11789,"筷":11790,"筸":11791,"筹":11792,"筺":11793,"筻":11794,"筽":11795,"签":11796,"筿":11797,"简":11798,"箆":11799,"箇":11800,"箋":11801,"箍":11802,"箎":11803,"箏":11804,"箐":11805,"箒":11806,"箓":11807,"箔":11808,"箕":11809,"算":11810,"箙":11811,"箚":11812,"箜":11813,"箝":11814,"箞":11815,"箟":11816,"管":11817,"箧":11818,"箪":11819,"箫":11820,"箬":11821,"箭":11822,"箱":11823,"箴":11824,"箸":11825,"箺":11826,"箼":11827,"節":11828,"篁":11829,"範":11830,"篆":11831,"篇":11832,"篈":11833,"築":11834,"篊":11835,"篋":11836,"篌":11837,"篏":11838,"篒":11839,"篔":11840,"篗":11841,"篙":11842,"篚":11843,"篝":11844,"篠":11845,"篡":11846,"篢":11847,"篤":11848,"篥":11849,"篦":11850,"篩":11851,"篪":11852,"篭":11853,"篮":11854,"篰":11855,"篳":11856,"篴":11857,"篶":11858,"篷":11859,"篹":11860,"篾":11861,"簀":11862,"簁":11863,"簃":11864,"簇":11865,"簉":11866,"簋":11867,"簍":11868,"簎":11869,"簏":11870,"簑":11871,"簒":11872,"簓":11873,"簔":11874,"簕":11875,"簗":11876,"簙":11877,"簝":11878,"簞":11879,"簟":11880,"簠":11881,"簡":11882,"簣":11883,"簦":11884,"簧":11885,"簪":11886,"簫":11887,"簮":11888,"簰":11889,"簱":11890,"簳":11891,"簶":11892,"簷":11893,"簸":11894,"簹":11895,"簺":11896,"簽":11897,"簾":11898,"簿":11899,"籀":11900,"籁":11901,"籃":11902,"籇":11903,"籈":11904,"籊":11905,"籌":11906,"籍":11907,"籏":11908,"籐":11909,"籑":11910,"籔":11911,"籕":11912,"籖":11913,"籘":11914,"籙":11915,"籛":11916,"籜":11917,"籟":11918,"籠":11919,"籡":11920,"籢":11921,"籤":11922,"籥":11923,"籩":11924,"籬":11925,"籭":11926,"籮":11927,"籰":11928,"籲":11929,"米":11930,"籴":11931,"籵":11932,"籹":11933,"籺":11934,"类":11935,"籼":11936,"籽":11937,"籾":11938,"粁":11939,"粂":11940,"粃":11941,"粄":11942,"粆":11943,"粉":11944,"粋":11945,"粍":11946,"粑":11947,"粒":11948,"粓":11949,"粔":11950,"粕":11951,"粗":11952,"粘":11953,"粛":11954,"粟":11955,"粠":11956,"粡":11957,"粢":11958,"粤":11959,"粥":11960,"粦":11961,"粧":11962,"粨":11963,"粪":11964,"粫":11965,"粬":11966,"粭":11967,"粮":11968,"粰":11969,"粱":11970,"粲":11971,"粳":11972,"粵":11973,"粹":11974,"粼":11975,"粽":11976,"精":11977,"粿":11978,"糀":11979,"糂":11980,"糄":11981,"糅":11982,"糈":11983,"糉":11984,"糊":11985,"糌":11986,"糍":11987,"糎":11988,"糒":11989,"糕":11990,"糖":11991,"糗":11992,"糘":11993,"糙":11994,"糜":11995,"糝":11996,"糞":11997,"糟":11998,"糠":11999,"糢":12000,"糦":12001,"糧":12002,"糫":12003,"糬":12004,"糭":12005,"糯":12006,"糰":12007,"糱":12008,"糲":12009,"糴":12010,"糵":12011,"糶":12012,"糸":12013,"糺":12014,"系":12015,"糼":12016,"糾":12017,"紀":12018,"紂":12019,"約":12020,"紅":12021,"紆":12022,"紇":12023,"紈":12024,"紉":12025,"紊":12026,"紋":12027,"納":12028,"紐":12029,"紑":12030,"紓":12031,"純":12032,"紕":12033,"紗":12034,"紘":12035,"紙":12036,"級":12037,"紛":12038,"紜":12039,"紝":12040,"紞":12041,"素":12042,"紡":12043,"索":12044,"紧":12045,"紪":12046,"紫":12047,"紬":12048,"紮":12049,"累":12050,"細":12051,"紱":12052,"紲":12053,"紳":12054,"紵":12055,"紹":12056,"紺":12057,"紼":12058,"絁":12059,"終":12060,"絃":12061,"組":12062,"絅":12063,"絆":12064,"絇":12065,"絈":12066,"絋":12067,"経":12068,"絎":12069,"絏":12070,"結":12071,"絓":12072,"絕":12073,"絖":12074,"絙":12075,"絚":12076,"絛":12077,"絜":12078,"絝":12079,"絞":12080,"絡":12081,"絢":12082,"絣":12083,"給":12084,"絧":12085,"絨":12086,"絪":12087,"絫":12088,"絮":12089,"絰":12090,"統":12091,"絲":12092,"絳":12093,"絵":12094,"絶":12095,"絹":12096,"絺":12097,"絽":12098,"絿":12099,"綁":12100,"綃":12101,"綆":12102,"綈":12103,"綉":12104,"綋":12105,"綍":12106,"綎":12107,"綏":12108,"綑":12109,"經":12110,"綗":12111,"綘":12112,"継":12113,"続":12114,"綛":12115,"綜":12116,"綝":12117,"綟":12118,"綠":12119,"綢":12120,"綣":12121,"綦":12122,"綧":12123,"綫":12124,"綬":12125,"維":12126,"綮":12127,"綯":12128,"綰":12129,"綱":12130,"網":12131,"綴":12132,"綵":12133,"綸":12134,"綺":12135,"綻":12136,"綽":12137,"綾":12138,"綿":12139,"緂":12140,"緄":12141,"緇":12142,"緈":12143,"緊":12144,"緋":12145,"緌":12146,"総":12147,"緑":12148,"緒":12149,"緖":12150,"緗":12151,"緘":12152,"線":12153,"緜":12154,"緝":12155,"緞":12156,"緟":12157,"締":12158,"緡":12159,"緣":12160,"緤":12161,"緥":12162,"緦":12163,"緧":12164,"編":12165,"緩":12166,"緪":12167,"緫":12168,"緬":12169,"緭":12170,"緯":12171,"緱":12172,"緲":12173,"練":12174,"緹":12175,"緻":12176,"縁":12177,"縄":12178,"縅":12179,"縇":12180,"縈":12181,"縉":12182,"縊":12183,"縋":12184,"縑":12185,"縒":12186,"縕":12187,"縗":12188,"縚":12189,"縛":12190,"縝":12191,"縞":12192,"縟":12193,"縠":12194,"縡":12195,"縢":12196,"縣":12197,"縦":12198,"縧":12199,"縨":12200,"縫":12201,"縮":12202,"縯":12203,"縱":12204,"縲":12205,"縳":12206,"縴":12207,"縵":12208,"縶":12209,"縷":12210,"縹":12211,"縺":12212,"縻":12213,"總":12214,"績":12215,"繁":12216,"繃":12217,"繅":12218,"繆":12219,"繇":12220,"繈":12221,"繊":12222,"繋":12223,"繍":12224,"繒":12225,"繓":12226,"織":12227,"繕":12228,"繖":12229,"繘":12230,"繙":12231,"繚":12232,"繝":12233,"繞":12234,"繡":12235,"繢":12236,"繦":12237,"繧":12238,"繩":12239,"繪":12240,"繫":12241,"繭":12242,"繯":12243,"繰":12244,"繳":12245,"繹":12246,"繻":12247,"繼":12248,"繽":12249,"纁":12250,"纂":12251,"纃":12252,"纆":12253,"纈":12254,"纉":12255,"纊":12256,"續":12257,"纍":12258,"纎":12259,"纏":12260,"纐":12261,"纑":12262,"纒":12263,"纓":12264,"纔":12265,"纖":12266,"纘":12267,"纚":12268,"纛":12269,"纜":12270,"纟":12271,"纠":12272,"红":12273,"纣":12274,"纤":12275,"约":12276,"级":12277,"纪":12278,"纬":12279,"纯":12280,"纱":12281,"纲":12282,"纳":12283,"纵":12284,"纶":12285,"纷":12286,"纸":12287,"纹":12288,"纺":12289,"纽":12290,"线":12291,"练":12292,"组":12293,"绅":12294,"细":12295,"织":12296,"终":12297,"绊":12298,"绍":12299,"绎":12300,"经":12301,"绒":12302,"结":12303,"绕":12304,"绘":12305,"给":12306,"绚":12307,"络":12308,"绝":12309,"统":12310,"绣":12311,"绥":12312,"继":12313,"绩":12314,"绪":12315,"续":12316,"绯":12317,"绳":12318,"维":12319,"绵":12320,"绶":12321,"绸":12322,"综":12323,"绿":12324,"缅":12325,"缆":12326,"缈":12327,"缉":12328,"缑":12329,"缓":12330,"编":12331,"缘":12332,"缚":12333,"缠":12334,"缤":12335,"缥":12336,"缦":12337,"缨":12338,"缩":12339,"缪":12340,"缮":12341,"缰":12342,"缳":12343,"缶":12344,"缸":12345,"缺":12346,"缻":12347,"缼":12348,"缽":12349,"缾":12350,"罃":12351,"罄":12352,"罅":12353,"罇":12354,"罈":12355,"罋":12356,"罌":12357,"罍":12358,"罎":12359,"罐":12360,"网":12361,"罒":12362,"罓":12363,"罔":12364,"罕":12365,"罗":12366,"罘":12367,"罚":12368,"罟":12369,"罠":12370,"罡":12371,"罢":12372,"罣":12373,"罥":12374,"罦":12375,"罧":12376,"罨":12377,"罩":12378,"罪":12379,"罫":12380,"置":12381,"罰":12382,"署":12383,"罳":12384,"罵":12385,"罷":12386,"罸":12387,"罹":12388,"罽":12389,"罾":12390,"羁":12391,"羂":12392,"羃":12393,"羅":12394,"羆":12395,"羇":12396,"羈":12397,"羊":12398,"羋":12399,"羌":12400,"羍":12401,"美":12402,"羐":12403,"羑":12404,"羔":12405,"羕":12406,"羖":12407,"羚":12408,"羝":12409,"羞":12410,"羡":12411,"羣":12412,"群":12413,"羥":12414,"羨":12415,"義":12416,"羮":12417,"羯":12418,"羲":12419,"羸":12420,"羹":12421,"羼":12422,"羽":12423,"羿":12424,"翀":12425,"翁":12426,"翃":12427,"翅":12428,"翆":12429,"翊":12430,"翌":12431,"翎":12432,"翏":12433,"習":12434,"翔":12435,"翕":12436,"翛":12437,"翜":12438,"翟":12439,"翠":12440,"翡":12441,"翥":12442,"翦":12443,"翩":12444,"翫":12445,"翬":12446,"翮":12447,"翯":12448,"翰":12449,"翱":12450,"翳":12451,"翹":12452,"翺":12453,"翻":12454,"翼":12455,"翽":12456,"翾":12457,"耀":12458,"老":12459,"耂":12460,"考":12461,"耄":12462,"者":12463,"耆":12464,"耇":12465,"耈":12466,"耉":12467,"耋":12468,"而":12469,"耍":12470,"耏":12471,"耐":12472,"耑":12473,"耒":12474,"耔":12475,"耕":12476,"耖":12477,"耗":12478,"耘":12479,"耙":12480,"耜":12481,"耟":12482,"耡":12483,"耦":12484,"耧":12485,"耨":12486,"耬":12487,"耭":12488,"耰":12489,"耳":12490,"耶":12491,"耷":12492,"耸":12493,"耺":12494,"耻":12495,"耽":12496,"耿":12497,"聂":12498,"聃":12499,"聆":12500,"聊":12501,"职":12502,"聒":12503,"联":12504,"聖":12505,"聘":12506,"聚":12507,"聝":12508,"聞":12509,"聟":12510,"聠":12511,"聡":12512,"聢":12513,"聦":12514,"聨":12515,"聪":12516,"聯":12517,"聰":12518,"聱":12519,"聲":12520,"聳":12521,"聴":12522,"聵":12523,"聶":12524,"職":12525,"聸":12526,"聻":12527,"聽":12528,"聾":12529,"聿":12530,"肀":12531,"肃":12532,"肄":12533,"肅":12534,"肆":12535,"肇":12536,"肉":12537,"肋":12538,"肌":12539,"肏":12540,"肓":12541,"肔":12542,"肖":12543,"肘":12544,"肚":12545,"肛":12546,"肜":12547,"肝":12548,"肠":12549,"股":12550,"肢":12551,"肤":12552,"肥":12553,"肦":12554,"肩":12555,"肪":12556,"肫":12557,"肭":12558,"肮":12559,"肯":12560,"肱":12561,"育":12562,"肴":12563,"肸":12564,"肺":12565,"肽":12566,"胃":12567,"胄":12568,"胅":12569,"胆":12570,"背":12571,"胍":12572,"胎":12573,"胏":12574,"胐":12575,"胔":12576,"胖":12577,"胗":12578,"胘":12579,"胙":12580,"胚":12581,"胛":12582,"胜":12583,"胝":12584,"胞":12585,"胠":12586,"胡":12587,"胤":12588,"胥":12589,"胭":12590,"胯":12591,"胰":12592,"胱":12593,"胳":12594,"胴":12595,"胶":12596,"胸":12597,"胹":12598,"胺":12599,"胼":12600,"能":12601,"脂":12602,"脃":12603,"脅":12604,"脆":12605,"脇":12606,"脈":12607,"脉":12608,"脊":12609,"脏":12610,"脑":12611,"脖":12612,"脘":12613,"脚":12614,"脛":12615,"脞":12616,"脢":12617,"脣":12618,"脩":12619,"脫":12620,"脯":12621,"脰":12622,"脱":12623,"脲":12624,"脳":12625,"脷":12626,"脸":12627,"脹":12628,"脾":12629,"脿":12630,"腄":12631,"腆":12632,"腈":12633,"腊":12634,"腋":12635,"腌":12636,"腎":12637,"腐":12638,"腑":12639,"腓":12640,"腔":12641,"腕":12642,"腚":12643,"腟":12644,"腠":12645,"腥":12646,"腦":12647,"腧":12648,"腨":12649,"腩":12650,"腫":12651,"腭":12652,"腮":12653,"腯":12654,"腰":12655,"腱":12656,"腳":12657,"腴":12658,"腸":12659,"腹":12660,"腺":12661,"腾":12662,"腿":12663,"膀":12664,"膁":12665,"膂":12666,"膃":12667,"膅":12668,"膈":12669,"膊":12670,"膋":12671,"膏":12672,"膑":12673,"膓":12674,"膕":12675,"膘":12676,"膚":12677,"膛":12678,"膜":12679,"膝":12680,"膠":12681,"膣":12682,"膥":12683,"膨":12684,"膩":12685,"膰":12686,"膳":12687,"膵":12688,"膸":12689,"膺":12690,"膻":12691,"膽":12692,"膾":12693,"膿":12694,"臀":12695,"臁":12696,"臂":12697,"臆":12698,"臇":12699,"臈":12700,"臉":12701,"臊":12702,"臍":12703,"臏":12704,"臑":12705,"臓":12706,"臘":12707,"臙":12708,"臚":12709,"臛":12710,"臞":12711,"臟":12712,"臠":12713,"臣":12714,"臥":12715,"臧":12716,"臨":12717,"自":12718,"臬":12719,"臭":12720,"臮":12721,"臲":12722,"至":12723,"致":12724,"臶":12725,"臺":12726,"臻":12727,"臼":12728,"臽":12729,"臾":12730,"舀":12731,"舁":12732,"舂":12733,"舃":12734,"舄":12735,"舅":12736,"舆":12737,"與":12738,"興":12739,"舉":12740,"舊":12741,"舌":12742,"舍":12743,"舎":12744,"舐":12745,"舒":12746,"舖":12747,"舗":12748,"舘":12749,"舛":12750,"舜":12751,"舞":12752,"舟":12753,"舠":12754,"舡":12755,"舢":12756,"舥":12757,"舨":12758,"舩":12759,"航":12760,"舫":12761,"般":12762,"舮":12763,"舰":12764,"舱":12765,"舲":12766,"舳":12767,"舵":12768,"舶":12769,"舷":12770,"舸":12771,"船":12772,"舺":12773,"舼":12774,"艀":12775,"艃":12776,"艅":12777,"艇":12778,"艉":12779,"艋":12780,"艎":12781,"艏":12782,"艘":12783,"艙":12784,"艚":12785,"艛":12786,"艜":12787,"艝":12788,"艟":12789,"艠":12790,"艣":12791,"艤":12792,"艦":12793,"艧":12794,"艨":12795,"艪":12796,"艫":12797,"艮":12798,"良":12799,"艰":12800,"艱":12801,"色":12802,"艳":12803,"艶":12804,"艷":12805,"艸":12806,"艹":12807,"艺":12808,"艽":12809,"艾":12810,"艿":12811,"芁":12812,"节":12813,"芃":12814,"芄":12815,"芇":12816,"芈":12817,"芊":12818,"芋":12819,"芍":12820,"芎":12821,"芑":12822,"芒":12823,"芔":12824,"芘":12825,"芙":12826,"芚":12827,"芜":12828,"芝":12829,"芟":12830,"芡":12831,"芣":12832,"芤":12833,"芥":12834,"芦":12835,"芧":12836,"芨":12837,"芩":12838,"芫":12839,"芬":12840,"芭":12841,"芮":12842,"芯":12843,"芰":12844,"花":12845,"芲":12846,"芳":12847,"芴":12848,"芷":12849,"芸":12850,"芹":12851,"芺":12852,"芻":12853,"芼":12854,"芽":12855,"芾":12856,"芿":12857,"苁":12858,"苅":12859,"苆":12860,"苋":12861,"苍":12862,"苎":12863,"苏":12864,"苑":12865,"苒":12866,"苓":12867,"苔":12868,"苕":12869,"苗":12870,"苙":12871,"苛":12872,"苜":12873,"苞":12874,"苟":12875,"苡":12876,"苣":12877,"若":12878,"苦":12879,"苧":12880,"苩":12881,"苫":12882,"苯":12883,"英":12884,"苳":12885,"苴":12886,"苹":12887,"苺":12888,"苻":12889,"苽":12890,"苾":12891,"苿":12892,"茀":12893,"茁":12894,"茂":12895,"范":12896,"茄":12897,"茅":12898,"茆":12899,"茇":12900,"茈":12901,"茉":12902,"茋":12903,"茌":12904,"茎":12905,"茖":12906,"茗":12907,"茘":12908,"茛":12909,"茜":12910,"茝":12911,"茣":12912,"茧":12913,"茨":12914,"茫":12915,"茭":12916,"茮":12917,"茯":12918,"茱":12919,"茲":12920,"茴":12921,"茵":12922,"茶":12923,"茷":12924,"茸":12925,"茹":12926,"茺":12927,"荀":12928,"荂":12929,"荃":12930,"荄":12931,"荅":12932,"荆":12933,"荇":12934,"荈":12935,"草":12936,"荊":12937,"荍":12938,"荎":12939,"荏":12940,"荐":12941,"荑":12942,"荒":12943,"荔":12944,"荖":12945,"荗":12946,"荘":12947,"荚":12948,"荞":12949,"荢":12950,"荣":12951,"荥":12952,"荦":12953,"荪":12954,"药":12955,"荳":12956,"荵":12957,"荷":12958,"荸":12959,"荺":12960,"荻":12961,"荼":12962,"荽":12963,"荿":12964,"莂":12965,"莃":12966,"莅":12967,"莆":12968,"莇":12969,"莉":12970,"莊":12971,"莋":12972,"莍":12973,"莎":12974,"莒":12975,"莓":12976,"莔":12977,"莕":12978,"莖":12979,"莘":12980,"莚":12981,"莜":12982,"莝":12983,"莞":12984,"莟":12985,"莠":12986,"莢":12987,"莧":12988,"莨":12989,"莩":12990,"莪":12991,"莫":12992,"莱":12993,"莲":12994,"莵":12995,"获":12996,"莹":12997,"莺":12998,"莻":12999,"莽":13000,"莿":13001,"菀":13002,"菁":13003,"菂":13004,"菅":13005,"菆":13006,"菇":13007,"菉":13008,"菊":13009,"菌":13010,"菎":13011,"菏":13012,"菑":13013,"菓":13014,"菔":13015,"菖":13016,"菘":13017,"菜":13018,"菝":13019,"菟":13020,"菠":13021,"菡":13022,"菥":13023,"菨":13024,"菩":13025,"菪":13026,"菫":13027,"華":13028,"菰":13029,"菱":13030,"菲":13031,"菴":13032,"菶":13033,"菷":13034,"菸":13035,"菻":13036,"菼":13037,"菽":13038,"菿":13039,"萁":13040,"萃":13041,"萄":13042,"萇":13043,"萊":13044,"萋":13045,"萌":13046,"萍":13047,"萎":13048,"萏":13049,"萑":13050,"萓":13051,"萘":13052,"萝":13053,"萠":13054,"萢":13055,"萣":13056,"萤":13057,"营":13058,"萦":13059,"萧":13060,"萨":13061,"萩":13062,"萪":13063,"萬":13064,"萯":13065,"萱":13066,"萳":13067,"萵":13068,"萸":13069,"萹":13070,"萼":13071,"落":13072,"萾":13073,"葂":13074,"葅":13075,"葆":13076,"葈":13077,"葉":13078,"葊":13079,"葎":13080,"葑":13081,"葒":13082,"葕":13083,"著":13084,"葘":13085,"葛":13086,"葜":13087,"葟":13088,"葡":13089,"葢":13090,"董":13091,"葦":13092,"葧":13093,"葩":13094,"葫":13095,"葬":13096,"葭":13097,"葮":13098,"葯":13099,"葰":13100,"葱":13101,"葳":13102,"葵":13103,"葶":13104,"葷":13105,"葹":13106,"葺":13107,"葻":13108,"葽":13109,"蒂":13110,"蒄":13111,"蒅":13112,"蒊":13113,"蒋":13114,"蒐":13115,"蒓":13116,"蒔":13117,"蒗":13118,"蒙":13119,"蒜":13120,"蒝":13121,"蒞":13122,"蒟":13123,"蒡":13124,"蒢":13125,"蒧":13126,"蒨":13127,"蒪":13128,"蒭":13129,"蒯":13130,"蒱":13131,"蒲":13132,"蒴":13133,"蒸":13134,"蒹":13135,"蒺":13136,"蒻":13137,"蒼":13138,"蒾":13139,"蒿":13140,"蓀":13141,"蓁":13142,"蓂":13143,"蓄":13144,"蓆":13145,"蓉":13146,"蓊":13147,"蓋":13148,"蓍":13149,"蓏":13150,"蓐":13151,"蓑":13152,"蓓":13153,"蓖":13154,"蓙":13155,"蓚":13156,"蓜":13157,"蓝":13158,"蓦":13159,"蓧":13160,"蓨":13161,"蓩":13162,"蓬":13163,"蓮":13164,"蓯":13165,"蓲":13166,"蓴":13167,"蓹":13168,"蓺":13169,"蓼":13170,"蓽":13171,"蓿":13172,"蔀":13173,"蔂":13174,"蔄":13175,"蔆":13176,"蔎":13177,"蔐":13178,"蔑":13179,"蔓":13180,"蔔":13181,"蔕":13182,"蔗":13183,"蔘":13184,"蔚":13185,"蔞":13186,"蔟":13187,"蔡":13188,"蔣":13189,"蔥":13190,"蔦":13191,"蔫":13192,"蔬":13193,"蔭":13194,"蔯":13195,"蔲":13196,"蔴":13197,"蔵":13198,"蔷":13199,"蔸":13200,"蔻":13201,"蔽":13202,"蔾":13203,"蔿":13204,"蕀":13205,"蕁":13206,"蕃":13207,"蕅":13208,"蕆":13209,"蕈":13210,"蕉":13211,"蕊":13212,"蕋":13213,"蕎":13214,"蕐":13215,"蕑":13216,"蕓":13217,"蕕":13218,"蕖":13219,"蕗":13220,"蕘":13221,"蕙":13222,"蕚":13223,"蕞":13224,"蕠":13225,"蕡":13226,"蕢":13227,"蕣":13228,"蕤":13229,"蕨":13230,"蕩":13231,"蕪":13232,"蕫":13233,"蕭":13234,"蕴":13235,"蕷":13236,"蕹":13237,"蕺":13238,"蕻":13239,"蕽":13240,"蕾":13241,"薀":13242,"薁":13243,"薄":13244,"薆":13245,"薇":13246,"薈":13247,"薉":13248,"薊":13249,"薋":13250,"薌":13251,"薍":13252,"薏":13253,"薐":13254,"薑":13255,"薔":13256,"薗":13257,"薙":13258,"薛":13259,"薜":13260,"薝":13261,"薢":13262,"薤":13263,"薦":13264,"薧":13265,"薨":13266,"薩":13267,"薪":13268,"薫":13269,"薬":13270,"薭":13271,"薮":13272,"薯":13273,"薰":13274,"薲":13275,"薳":13276,"薷":13277,"薹":13278,"薺":13279,"薼":13280,"藁":13281,"藂":13282,"藉":13283,"藊":13284,"藋":13285,"藍":13286,"藎":13287,"藏":13288,"藐":13289,"藔":13290,"藕":13291,"藘":13292,"藜":13293,"藝":13294,"藟":13295,"藤":13296,"藥":13297,"藦":13298,"藩":13299,"藪":13300,"藭":13301,"藶":13302,"藷":13303,"藹":13304,"藺":13305,"藻":13306,"藾":13307,"藿":13308,"蘀":13309,"蘂":13310,"蘄":13311,"蘅":13312,"蘆":13313,"蘇":13314,"蘊":13315,"蘋":13316,"蘐":13317,"蘑":13318,"蘒":13319,"蘓":13320,"蘖":13321,"蘗":13322,"蘘":13323,"蘚":13324,"蘞":13325,"蘡":13326,"蘢":13327,"蘧":13328,"蘩":13329,"蘭":13330,"蘰":13331,"蘸":13332,"蘼":13333,"蘿":13334,"虂":13335,"虆":13336,"虍":13337,"虎":13338,"虐":13339,"虑":13340,"虒":13341,"虓":13342,"虔":13343,"處":13344,"虖":13345,"虙":13346,"虚":13347,"虛":13348,"虜":13349,"虞":13350,"號":13351,"虠":13352,"虡":13353,"虢":13354,"虤":13355,"虦":13356,"虧":13357,"虨":13358,"虪":13359,"虫":13360,"虬":13361,"虯":13362,"虱":13363,"虵":13364,"虷":13365,"虹":13366,"虺":13367,"虻":13368,"虽":13369,"虾":13370,"虿":13371,"蚀":13372,"蚁":13373,"蚂":13374,"蚇":13375,"蚉":13376,"蚊":13377,"蚋":13378,"蚌":13379,"蚍":13380,"蚑":13381,"蚒":13382,"蚓":13383,"蚕":13384,"蚖":13385,"蚜":13386,"蚝":13387,"蚠":13388,"蚡":13389,"蚣":13390,"蚤":13391,"蚧":13392,"蚩":13393,"蚪":13394,"蚫":13395,"蚯":13396,"蚰":13397,"蚳":13398,"蚵":13399,"蚶":13400,"蚸":13401,"蚺":13402,"蚿":13403,"蛁":13404,"蛄":13405,"蛆":13406,"蛇":13407,"蛉":13408,"蛊":13409,"蛋":13410,"蛍":13411,"蛎":13412,"蛑":13413,"蛔":13414,"蛕":13415,"蛘":13416,"蛙":13417,"蛛":13418,"蛞":13419,"蛟":13420,"蛠":13421,"蛤":13422,"蛦":13423,"蛩":13424,"蛬":13425,"蛭":13426,"蛮":13427,"蛯":13428,"蛰":13429,"蛳":13430,"蛸":13431,"蛹":13432,"蛺":13433,"蛻":13434,"蛼":13435,"蛽":13436,"蛾":13437,"蜀":13438,"蜂":13439,"蜃":13440,"蜅":13441,"蜆":13442,"蜇":13443,"蜈":13444,"蜉":13445,"蜊":13446,"蜋":13447,"蜍":13448,"蜎":13449,"蜑":13450,"蜒":13451,"蜓":13452,"蜕":13453,"蜗":13454,"蜘":13455,"蜙":13456,"蜚":13457,"蜜":13458,"蜞":13459,"蜡":13460,"蜢":13461,"蜥":13462,"蜨":13463,"蜩":13464,"蜱":13465,"蜴":13466,"蜷":13467,"蜺":13468,"蜻":13469,"蜼":13470,"蜾":13471,"蜿":13472,"蝀":13473,"蝃":13474,"蝄":13475,"蝅":13476,"蝇":13477,"蝉":13478,"蝋":13479,"蝌":13480,"蝍":13481,"蝎":13482,"蝓":13483,"蝕":13484,"蝗":13485,"蝘":13486,"蝙":13487,"蝚":13488,"蝟":13489,"蝠":13490,"蝣":13491,"蝤":13492,"蝥":13493,"蝦":13494,"蝨":13495,"蝪":13496,"蝮":13497,"蝯":13498,"蝱":13499,"蝲":13500,"蝴":13501,"蝶":13502,"蝸":13503,"蝹":13504,"蝼":13505,"蝽":13506,"蝿":13507,"螂":13508,"螃":13509,"螄":13510,"螅":13511,"螇":13512,"螈":13513,"螉":13514,"螋":13515,"融":13516,"螕":13517,"螘":13518,"螙":13519,"螞":13520,"螟":13521,"螠":13522,"螢":13523,"螣":13524,"螥":13525,"螧":13526,"螫":13527,"螬":13528,"螭":13529,"螮":13530,"螯":13531,"螱":13532,"螳":13533,"螵":13534,"螺":13535,"螻":13536,"螽":13537,"螾":13538,"蟀":13539,"蟄":13540,"蟆":13541,"蟇":13542,"蟈":13543,"蟊":13544,"蟋":13545,"蟌":13546,"蟎":13547,"蟐":13548,"蟑":13549,"蟒":13550,"蟖":13551,"蟛":13552,"蟜":13553,"蟟":13554,"蟠":13555,"蟣":13556,"蟫":13557,"蟬":13558,"蟭":13559,"蟯":13560,"蟲":13561,"蟳":13562,"蟶":13563,"蟷":13564,"蟹":13565,"蟻":13566,"蟾":13567,"蠁":13568,"蠃":13569,"蠅":13570,"蠆":13571,"蠇":13572,"蠊":13573,"蠋":13574,"蠍":13575,"蠎":13576,"蠐":13577,"蠑":13578,"蠓":13579,"蠔":13580,"蠕":13581,"蠖":13582,"蠘":13583,"蠙":13584,"蠛":13585,"蠟":13586,"蠡":13587,"蠢":13588,"蠣":13589,"蠦":13590,"蠧":13591,"蠨":13592,"蠪":13593,"蠬":13594,"蠭":13595,"蠮":13596,"蠰":13597,"蠱":13598,"蠲":13599,"蠶":13600,"蠹":13601,"蠻":13602,"蠼":13603,"血":13604,"衂":13605,"衄":13606,"衅":13607,"衆":13608,"衋":13609,"行":13610,"衍":13611,"衎":13612,"衑":13613,"衒":13614,"術":13615,"衔":13616,"衕":13617,"街":13618,"衙":13619,"衚":13620,"衛":13621,"衜":13622,"衝":13623,"衞":13624,"衟":13625,"衡":13626,"衢":13627,"衣":13628,"衤":13629,"补":13630,"衦":13631,"表":13632,"衩":13633,"衫":13634,"衬":13635,"衰":13636,"衲":13637,"衵":13638,"衷":13639,"衹":13640,"衽":13641,"衾":13642,"衿":13643,"袁":13644,"袂":13645,"袄":13646,"袈":13647,"袉":13648,"袋":13649,"袌":13650,"袍":13651,"袒":13652,"袓":13653,"袖":13654,"袗":13655,"袙":13656,"袚":13657,"袛":13658,"袞":13659,"袠":13660,"袢":13661,"袤":13662,"被":13663,"袭":13664,"袮":13665,"袰":13666,"袱":13667,"袲":13668,"袳":13669,"袴":13670,"袵":13671,"袷":13672,"袾":13673,"袿":13674,"裀":13675,"裁":13676,"裂":13677,"裃":13678,"裄":13679,"装":13680,"裆":13681,"裊":13682,"裋":13683,"裎":13684,"裏":13685,"裒":13686,"裔":13687,"裕":13688,"裘":13689,"裙":13690,"補":13691,"裝":13692,"裟":13693,"裡":13694,"裤":13695,"裨":13696,"裯":13697,"裰":13698,"裱":13699,"裲":13700,"裳":13701,"裴":13702,"裵":13703,"裶":13704,"裸":13705,"裹":13706,"製":13707,"裾":13708,"褁":13709,"褂":13710,"褄":13711,"褆":13712,"複":13713,"褈":13714,"褊":13715,"褌":13716,"褎":13717,"褐":13718,"褒":13719,"褓":13720,"褕":13721,"褘":13722,"褙":13723,"褚":13724,"褝":13725,"褞":13726,"褡":13727,"褥":13728,"褧":13729,"褪":13730,"褫":13731,"褭":13732,"褰":13733,"褲":13734,"褳":13735,"褶":13736,"褸":13737,"褹":13738,"褻":13739,"襀":13740,"襁":13741,"襂":13742,"襃":13743,"襄":13744,"襅":13745,"襆":13746,"襉":13747,"襌":13748,"襍":13749,"襎":13750,"襖":13751,"襛":13752,"襜":13753,"襞":13754,"襟":13755,"襠":13756,"襡":13757,"襣":13758,"襤":13759,"襦":13760,"襧":13761,"襨":13762,"襪":13763,"襯":13764,"襲":13765,"襴":13766,"襷":13767,"襾":13768,"西":13769,"覀":13770,"要":13771,"覃":13772,"覆":13773,"覇":13774,"覈":13775,"覉":13776,"覊":13777,"見":13778,"規":13779,"覓":13780,"覔":13781,"視":13782,"覗":13783,"覘":13784,"覚":13785,"覡":13786,"覣":13787,"覦":13788,"覧":13789,"覩":13790,"親":13791,"覬":13792,"覯":13793,"覲":13794,"観":13795,"覵":13796,"覷":13797,"覺":13798,"覽":13799,"覿":13800,"觀":13801,"见":13802,"观":13803,"规":13804,"视":13805,"览":13806,"觉":13807,"角":13808,"觔":13809,"觕":13810,"觖":13811,"觚":13812,"觜":13813,"觝":13814,"解":13815,"觥":13816,"触":13817,"觧":13818,"觫":13819,"觬":13820,"觭":13821,"觮":13822,"觱":13823,"觴":13824,"觶":13825,"觸":13826,"觻":13827,"觼":13828,"觽":13829,"觿":13830,"言":13831,"訂":13832,"訃":13833,"訄":13834,"訇":13835,"計":13836,"訊":13837,"訌":13838,"討":13839,"訏":13840,"訐":13841,"訒":13842,"訓":13843,"訔":13844,"訕":13845,"訖":13846,"託":13847,"記":13848,"訛":13849,"訝":13850,"訞":13851,"訟":13852,"訢":13853,"訣":13854,"訥":13855,"訪":13856,"訬":13857,"設":13858,"訯":13859,"許":13860,"訳":13861,"訴":13862,"訶":13863,"訷":13864,"訸":13865,"診":13866,"註":13867,"証":13868,"訽":13869,"訾":13870,"詀":13871,"詁":13872,"詃":13873,"詆":13874,"詇":13875,"詈":13876,"詎":13877,"詐":13878,"詑":13879,"詒":13880,"詔":13881,"評":13882,"詖":13883,"詗":13884,"詘":13885,"詛":13886,"詝":13887,"詞":13888,"詠":13889,"詡":13890,"詢":13891,"詣":13892,"詥":13893,"試":13894,"詧":13895,"詩":13896,"詫":13897,"詭":13898,"詮":13899,"詰":13900,"話":13901,"該":13902,"詳":13903,"詵":13904,"詹":13905,"詺":13906,"詿":13907,"誂":13908,"誄":13909,"誅":13910,"誇":13911,"誉":13912,"誌":13913,"認":13914,"誏":13915,"誐":13916,"誑":13917,"誓":13918,"誕":13919,"誖":13920,"誘":13921,"誚":13922,"語":13923,"誠":13924,"誡":13925,"誣":13926,"誤":13927,"誥":13928,"誦":13929,"誧":13930,"誨":13931,"誩":13932,"說":13933,"説":13934,"読":13935,"誰":13936,"課":13937,"誴":13938,"誹":13939,"誼":13940,"誽":13941,"誾":13942,"調":13943,"諂":13944,"諄":13945,"談":13946,"請":13947,"諌":13948,"諍":13949,"諏":13950,"諐":13951,"諒":13952,"諓":13953,"諕":13954,"論":13955,"諗":13956,"諚":13957,"諛":13958,"諜":13959,"諝":13960,"諟":13961,"諠":13962,"諡":13963,"諢":13964,"諤":13965,"諦":13966,"諧":13967,"諪":13968,"諫":13969,"諭":13970,"諮":13971,"諱":13972,"諲":13973,"諳":13974,"諴":13975,"諶":13976,"諷":13977,"諸":13978,"諺":13979,"諼":13980,"諾":13981,"謀":13982,"謁":13983,"謂":13984,"謄":13985,"謇":13986,"謊":13987,"謌":13988,"謎":13989,"謏":13990,"謐":13991,"謔":13992,"謖":13993,"謗":13994,"謙":13995,"講":13996,"謜":13997,"謝":13998,"謠":13999,"謡":14000,"謦":14001,"謨":14002,"謩":14003,"謫":14004,"謬":14005,"謳":14006,"謷":14007,"謹":14008,"謾":14009,"譁":14010,"證":14011,"譌":14012,"譎":14013,"譏":14014,"譒":14015,"譓":14016,"譔":14017,"譖":14018,"識":14019,"譙":14020,"譚":14021,"譜":14022,"譞":14023,"譟":14024,"譡":14025,"警":14026,"譫":14027,"譬":14028,"譮":14029,"譯":14030,"議":14031,"譱":14032,"譲":14033,"譴":14034,"護":14035,"譼":14036,"譽":14037,"譿":14038,"讀":14039,"讃":14040,"變":14041,"讌":14042,"讎":14043,"讐":14044,"讒":14045,"讓":14046,"讖":14047,"讘":14048,"讙":14049,"讚":14050,"讜":14051,"讝":14052,"讞":14053,"讠":14054,"计":14055,"订":14056,"认":14057,"讨":14058,"让":14059,"讬":14060,"训":14061,"议":14062,"讯":14063,"记":14064,"讲":14065,"许":14066,"论":14067,"讼":14068,"设":14069,"访":14070,"诀":14071,"证":14072,"诃":14073,"评":14074,"识":14075,"诉":14076,"诊":14077,"词":14078,"诏":14079,"译":14080,"试":14081,"诗":14082,"诚":14083,"诛":14084,"话":14085,"诞":14086,"询":14087,"诣":14088,"该":14089,"详":14090,"语":14091,"误":14092,"说":14093,"诵":14094,"诶":14095,"请":14096,"诸":14097,"诺":14098,"读":14099,"课":14100,"谁":14101,"调":14102,"谅":14103,"谈":14104,"谊":14105,"谋":14106,"谍":14107,"谎":14108,"谏":14109,"谐":14110,"谓":14111,"谔":14112,"谕":14113,"谘":14114,"谚":14115,"谛":14116,"谜":14117,"谞":14118,"谢":14119,"谣":14120,"谦":14121,"谨":14122,"谭":14123,"谱":14124,"谴":14125,"谷":14126,"谸":14127,"谺":14128,"谼":14129,"谽":14130,"谿":14131,"豁":14132,"豅":14133,"豆":14134,"豇":14135,"豈":14136,"豉":14137,"豊":14138,"豌":14139,"豎":14140,"豐":14141,"豔":14142,"豕":14143,"豚":14144,"象":14145,"豢":14146,"豣":14147,"豦":14148,"豨":14149,"豪":14150,"豫":14151,"豬":14152,"豭":14153,"豲":14154,"豳":14155,"豷":14156,"豸":14157,"豹":14158,"豺":14159,"豻":14160,"豼":14161,"豽":14162,"貂":14163,"貅":14164,"貆":14165,"貉":14166,"貊":14167,"貌":14168,"貍":14169,"貎":14170,"貐":14171,"貓":14172,"貔":14173,"貗":14174,"貘":14175,"貙":14176,"貛":14177,"貝":14178,"貞":14179,"負":14180,"財":14181,"貢":14182,"貤":14183,"貧":14184,"貨":14185,"販":14186,"貪":14187,"貫":14188,"責":14189,"貭":14190,"貮":14191,"貯":14192,"貰":14193,"貲":14194,"貳":14195,"貴":14196,"貶":14197,"買":14198,"貸":14199,"貺":14200,"費":14201,"貼":14202,"貽":14203,"貿":14204,"賀":14205,"賁":14206,"賂":14207,"賃":14208,"賄":14209,"資":14210,"賈":14211,"賊":14212,"賍":14213,"賎":14214,"賏":14215,"賑":14216,"賒":14217,"賓":14218,"賕":14219,"賚":14220,"賛":14221,"賜":14222,"賞":14223,"賠":14224,"賡":14225,"賢":14226,"賣":14227,"賤":14228,"賥":14229,"賦":14230,"賧":14231,"賨":14232,"質":14233,"賬":14234,"賭":14235,"賰":14236,"賴":14237,"賵":14238,"賸":14239,"賺":14240,"賻":14241,"購":14242,"賽":14243,"賾":14244,"贄":14245,"贅":14246,"贇":14247,"贈":14248,"贊":14249,"贋":14250,"贍":14251,"贏":14252,"贐":14253,"贑":14254,"贒":14255,"贓":14256,"贔":14257,"贖":14258,"贛":14259,"贝":14260,"贞":14261,"负":14262,"贠":14263,"贡":14264,"财":14265,"责":14266,"贤":14267,"败":14268,"货":14269,"质":14270,"贩":14271,"贫":14272,"购":14273,"贯":14274,"贲":14275,"贴":14276,"贵":14277,"贸":14278,"费":14279,"贺":14280,"贻":14281,"贼":14282,"贾":14283,"资":14284,"赉":14285,"赋":14286,"赏":14287,"赐":14288,"赖":14289,"赛":14290,"赞":14291,"赠":14292,"赡":14293,"赢":14294,"赣":14295,"赤":14296,"赦":14297,"赧":14298,"赩":14299,"赫":14300,"赭":14301,"走":14302,"赳":14303,"赴":14304,"赵":14305,"赶":14306,"起":14307,"趁":14308,"超":14309,"趉":14310,"越":14311,"趋":14312,"趕":14313,"趙":14314,"趞":14315,"趟":14316,"趡":14317,"趣":14318,"趨":14319,"趫":14320,"趯":14321,"足":14322,"趴":14323,"趵":14324,"趹":14325,"趺":14326,"趼":14327,"趾":14328,"趿":14329,"跂":14330,"跃":14331,"跆":14332,"跋":14333,"跌":14334,"跍":14335,"跎":14336,"跏":14337,"跐":14338,"跑":14339,"跕":14340,"跖":14341,"跗":14342,"跙":14343,"跚":14344,"跛":14345,"距":14346,"跟":14347,"跡":14348,"跢":14349,"跣":14350,"跤":14351,"跨":14352,"跪":14353,"跫":14354,"跬":14355,"路":14356,"跳":14357,"践":14358,"跼":14359,"跽":14360,"跿":14361,"踄":14362,"踅":14363,"踆":14364,"踈":14365,"踉":14366,"踊":14367,"踋":14368,"踎":14369,"踏":14370,"踐":14371,"踔":14372,"踕":14373,"踖":14374,"踝":14375,"踞":14376,"踟":14377,"踠":14378,"踢":14379,"踣":14380,"踦":14381,"踧":14382,"踩":14383,"踪":14384,"踰":14385,"踴":14386,"踵":14387,"踶":14388,"蹀":14389,"蹂":14390,"蹄":14391,"蹇":14392,"蹈":14393,"蹉":14394,"蹊":14395,"蹋":14396,"蹌":14397,"蹏":14398,"蹐":14399,"蹔":14400,"蹕":14401,"蹙":14402,"蹛":14403,"蹜":14404,"蹟":14405,"蹠":14406,"蹢":14407,"蹣":14408,"蹤":14409,"蹦":14410,"蹩":14411,"蹬":14412,"蹯":14413,"蹰":14414,"蹲":14415,"蹴":14416,"蹶":14417,"蹹":14418,"蹺":14419,"蹻":14420,"蹼":14421,"蹿":14422,"躁":14423,"躄":14424,"躅":14425,"躇":14426,"躉":14427,"躊":14428,"躋":14429,"躍":14430,"躑":14431,"躒":14432,"躓":14433,"躔":14434,"躙":14435,"躡":14436,"躪":14437,"身":14438,"躬":14439,"躭":14440,"躯":14441,"躰":14442,"躱":14443,"躺":14444,"躻":14445,"躽":14446,"躾":14447,"軀":14448,"軄":14449,"軅":14450,"軆":14451,"軈":14452,"車":14453,"軋":14454,"軌":14455,"軍":14456,"軏":14457,"軑":14458,"軒":14459,"軔":14460,"軕":14461,"軛":14462,"軟":14463,"転":14464,"軣":14465,"軨":14466,"軫":14467,"軲":14468,"軸":14469,"軹":14470,"軺":14471,"軻":14472,"軼":14473,"軽":14474,"軾":14475,"軿":14476,"較":14477,"輄":14478,"輅":14479,"輇":14480,"載":14481,"輊":14482,"輋":14483,"輌":14484,"輏":14485,"輒":14486,"輓":14487,"輔":14488,"輕":14489,"輗":14490,"輙":14491,"輛":14492,"輜":14493,"輝":14494,"輞":14495,"輟":14496,"輦":14497,"輧":14498,"輨":14499,"輩":14500,"輪":14501,"輬":14502,"輭":14503,"輮":14504,"輯":14505,"輳":14506,"輶":14507,"輸":14508,"輹":14509,"輺":14510,"輻":14511,"輾":14512,"輿":14513,"轀":14514,"轂":14515,"轄":14516,"轅":14517,"轆":14518,"轉":14519,"轌":14520,"轍":14521,"轎":14522,"轑":14523,"轔":14524,"轗":14525,"轘":14526,"轜":14527,"轝":14528,"轞":14529,"轟":14530,"轡":14531,"轢":14532,"轣":14533,"轤":14534,"车":14535,"轨":14536,"轩":14537,"轫":14538,"转":14539,"轮":14540,"软":14541,"轰":14542,"轲":14543,"轴":14544,"轶":14545,"轸":14546,"轻":14547,"载":14548,"辂":14549,"较":14550,"辅":14551,"辆":14552,"辇":14553,"辈":14554,"辉":14555,"辑":14556,"输":14557,"辖":14558,"辛":14559,"辜":14560,"辞":14561,"辟":14562,"辠":14563,"辡":14564,"辣":14565,"辦":14566,"辧":14567,"辨":14568,"辭":14569,"辮":14570,"辯":14571,"辰":14572,"辱":14573,"農":14574,"辵":14575,"辶":14576,"辷":14577,"边":14578,"辺":14579,"辻":14580,"込":14581,"辽":14582,"达":14583,"辿":14584,"迀":14585,"迁":14586,"迂":14587,"迄":14588,"迅":14589,"过":14590,"迈":14591,"迊":14592,"迎":14593,"运":14594,"近":14595,"迒":14596,"迓":14597,"返":14598,"还":14599,"这":14600,"迚":14601,"进":14602,"远":14603,"违":14604,"连":14605,"迟":14606,"迠":14607,"迢":14608,"迤":14609,"迥":14610,"迦":14611,"迨":14612,"迩":14613,"迪":14614,"迫":14615,"迭":14616,"迮":14617,"迯":14618,"述":14619,"迲":14620,"迴":14621,"迵":14622,"迶":14623,"迷":14624,"迸":14625,"迹":14626,"迺":14627,"迻":14628,"追":14629,"迾":14630,"退":14631,"送":14632,"适":14633,"逃":14634,"逄":14635,"逅":14636,"逆":14637,"选":14638,"逊":14639,"逋":14640,"逌":14641,"逍":14642,"逎":14643,"透":14644,"逐":14645,"逑":14646,"递":14647,"逓":14648,"途":14649,"逕":14650,"逖":14651,"逗":14652,"這":14653,"通":14654,"逛":14655,"逝":14656,"逞":14657,"速":14658,"造":14659,"逡":14660,"逢":14661,"連":14662,"逧":14663,"逨":14664,"逬":14665,"逭":14666,"逮":14667,"逯":14668,"逰":14669,"週":14670,"進":14671,"逴":14672,"逵":14673,"逶":14674,"逷":14675,"逸":14676,"逹":14677,"逻":14678,"逼":14679,"逾":14680,"遁":14681,"遂":14682,"遃":14683,"遄":14684,"遅":14685,"遇":14686,"遉":14687,"遊":14688,"運":14689,"遍":14690,"過":14691,"遏":14692,"遐":14693,"遑":14694,"遒":14695,"道":14696,"達":14697,"違":14698,"遖":14699,"遗":14700,"遘":14701,"遙":14702,"遜":14703,"遞":14704,"遟":14705,"遠":14706,"遡":14707,"遢":14708,"遣":14709,"遥":14710,"遧":14711,"遨":14712,"適":14713,"遫":14714,"遭":14715,"遮":14716,"遯":14717,"遲":14718,"遴":14719,"遵":14720,"遶":14721,"遷":14722,"選":14723,"遹":14724,"遺":14725,"遼":14726,"遽":14727,"避":14728,"邀":14729,"邁":14730,"邂":14731,"邃":14732,"還":14733,"邅":14734,"邇":14735,"邈":14736,"邉":14737,"邊":14738,"邋":14739,"邌":14740,"邏":14741,"邐":14742,"邑":14743,"邓":14744,"邔":14745,"邕":14746,"邗":14747,"邘":14748,"邙":14749,"邛":14750,"邞":14751,"邟":14752,"邠":14753,"邡":14754,"邢":14755,"那":14756,"邥":14757,"邦":14758,"邧":14759,"邨":14760,"邪":14761,"邬":14762,"邮":14763,"邯":14764,"邰":14765,"邱":14766,"邲":14767,"邳":14768,"邴":14769,"邵":14770,"邶":14771,"邸":14772,"邹":14773,"邻":14774,"邽":14775,"邾":14776,"邿":14777,"郁":14778,"郃":14779,"郄":14780,"郅":14781,"郇":14782,"郈":14783,"郊":14784,"郋":14785,"郎":14786,"郑":14787,"郒":14788,"郕":14789,"郗":14790,"郙":14791,"郚":14792,"郛":14793,"郜":14794,"郝":14795,"郞":14796,"郟":14797,"郠":14798,"郡":14799,"郢":14800,"郤":14801,"部":14802,"郪":14803,"郫":14804,"郭":14805,"郯":14806,"郱":14807,"郳":14808,"郴":14809,"郵":14810,"郶":14811,"郷":14812,"郸":14813,"郻":14814,"都":14815,"郾":14816,"郿":14817,"鄀":14818,"鄂":14819,"鄃":14820,"鄄":14821,"鄅":14822,"鄆":14823,"鄇":14824,"鄉":14825,"鄋":14826,"鄌":14827,"鄎":14828,"鄐":14829,"鄑":14830,"鄒":14831,"鄔":14832,"鄕":14833,"鄖":14834,"鄗":14835,"鄘":14836,"鄙":14837,"鄚":14838,"鄛":14839,"鄜":14840,"鄞":14841,"鄟":14842,"鄠":14843,"鄡":14844,"鄢":14845,"鄣":14846,"鄤":14847,"鄧":14848,"鄨":14849,"鄩":14850,"鄫":14851,"鄬":14852,"鄭":14853,"鄮":14854,"鄯":14855,"鄰":14856,"鄱":14857,"鄲":14858,"鄳":14859,"鄴":14860,"鄶":14861,"鄷":14862,"鄹":14863,"鄺":14864,"鄻":14865,"鄽":14866,"鄾":14867,"酃":14868,"酅":14869,"酆":14870,"酇":14871,"酈":14872,"酉":14873,"酊":14874,"酋":14875,"酌":14876,"配":14877,"酎":14878,"酒":14879,"酓":14880,"酔":14881,"酖":14882,"酘":14883,"酛":14884,"酡":14885,"酢":14886,"酣":14887,"酤":14888,"酥":14889,"酧":14890,"酩":14891,"酪":14892,"酬":14893,"酮":14894,"酰":14895,"酱":14896,"酲":14897,"酴":14898,"酵":14899,"酶":14900,"酷":14901,"酸":14902,"酹":14903,"酺":14904,"酿":14905,"醁":14906,"醂":14907,"醃":14908,"醅":14909,"醇":14910,"醉":14911,"醋":14912,"醍":14913,"醐":14914,"醒":14915,"醗":14916,"醚":14917,"醛":14918,"醜":14919,"醞":14920,"醢":14921,"醤":14922,"醧":14923,"醨":14924,"醪":14925,"醫":14926,"醬":14927,"醮":14928,"醯":14929,"醱":14930,"醴":14931,"醵":14932,"醸":14933,"醺":14934,"醻":14935,"醽":14936,"醿":14937,"釀":14938,"釁":14939,"釃":14940,"釅":14941,"釆":14942,"采":14943,"釈":14944,"釉":14945,"释":14946,"釋":14947,"里":14948,"重":14949,"野":14950,"量":14951,"釐":14952,"金":14953,"釒":14954,"釔":14955,"釕":14956,"釖":14957,"釗":14958,"釘":14959,"釛":14960,"釜":14961,"針":14962,"釟":14963,"釡":14964,"釢":14965,"釣":14966,"釤":14967,"釥":14968,"釦":14969,"釧":14970,"釩":14971,"釪":14972,"釬":14973,"釭":14974,"釮":14975,"釱":14976,"釴":14977,"釵":14978,"釶":14979,"釷":14980,"釻":14981,"釼":14982,"釽":14983,"釿":14984,"鈀":14985,"鈁":14986,"鈃":14987,"鈄":14988,"鈅":14989,"鈆":14990,"鈇":14991,"鈈":14992,"鈉":14993,"鈊":14994,"鈍":14995,"鈎":14996,"鈐":14997,"鈑":14998,"鈒":14999,"鈔":15000,"鈕":15001,"鈖":15002,"鈞":15003,"鈤":15004,"鈥":15005,"鈦":15006,"鈨":15007,"鈩":15008,"鈫":15009,"鈯":15010,"鈰":15011,"鈴":15012,"鈵":15013,"鈷":15014,"鈸":15015,"鈹":15016,"鈺":15017,"鈼":15018,"鈾":15019,"鈿":15020,"鉀":15021,"鉁":15022,"鉃":15023,"鉄":15024,"鉅":15025,"鉆":15026,"鉇":15027,"鉈":15028,"鉉":15029,"鉊":15030,"鉋":15031,"鉍":15032,"鉎":15033,"鉏":15034,"鉐":15035,"鉑":15036,"鉗":15037,"鉚":15038,"鉛":15039,"鉞":15040,"鉠":15041,"鉡":15042,"鉢":15043,"鉤":15044,"鉥":15045,"鉦":15046,"鉧":15047,"鉮":15048,"鉱":15049,"鉴":15050,"鉶":15051,"鉷":15052,"鉸":15053,"鉻":15054,"鉼":15055,"鉾":15056,"鉿":15057,"銀":15058,"銁":15059,"銃":15060,"銅":15061,"銈":15062,"銉":15063,"銊":15064,"銍":15065,"銎":15066,"銐":15067,"銑":15068,"銒":15069,"銓":15070,"銕":15071,"銖":15072,"銘":15073,"銙":15074,"銚":15075,"銛":15076,"銜":15077,"銠":15078,"銤":15079,"銨":15080,"銩":15081,"銫":15082,"銬":15083,"銭":15084,"銮":15085,"銲":15086,"銳":15087,"銶":15088,"銷":15089,"銹":15090,"銻":15091,"銼":15092,"銿":15093,"鋀":15094,"鋁":15095,"鋂":15096,"鋃":15097,"鋅":15098,"鋆":15099,"鋇":15100,"鋈":15101,"鋉":15102,"鋋":15103,"鋌":15104,"鋏":15105,"鋐":15106,"鋑":15107,"鋒":15108,"鋓":15109,"鋕":15110,"鋗":15111,"鋙":15112,"鋞":15113,"鋠":15114,"鋡":15115,"鋣":15116,"鋤":15117,"鋥":15118,"鋧":15119,"鋩":15120,"鋪":15121,"鋬":15122,"鋭":15123,"鋮":15124,"鋰":15125,"鋲":15126,"鋳":15127,"鋸":15128,"鋹":15129,"鋺":15130,"鋼":15131,"鋿":15132,"錀":15133,"錂":15134,"錄":15135,"錆":15136,"錍":15137,"錏":15138,"錐":15139,"錕":15140,"錘":15141,"錙":15142,"錚":15143,"錛":15144,"錞":15145,"錟":15146,"錠":15147,"錡":15148,"錢":15149,"錣":15150,"錥":15151,"錦":15152,"錧":15153,"錨":15154,"錩":15155,"錫":15156,"錬":15157,"錮":15158,"錯":15159,"錱":15160,"録":15161,"錵":15162,"錶":15163,"錸":15164,"錺":15165,"錻":15166,"鍁":15167,"鍄":15168,"鍇":15169,"鍈":15170,"鍉":15171,"鍊":15172,"鍋":15173,"鍍":15174,"鍑":15175,"鍒":15176,"鍔":15177,"鍖":15178,"鍗":15179,"鍘":15180,"鍙":15181,"鍚":15182,"鍛":15183,"鍜":15184,"鍝":15185,"鍟":15186,"鍠":15187,"鍤":15188,"鍥":15189,"鍪":15190,"鍫":15191,"鍬":15192,"鍮":15193,"鍰":15194,"鍱":15195,"鍳":15196,"鍵":15197,"鍶":15198,"鍹":15199,"鍼":15200,"鍾":15201,"鎁":15202,"鎂":15203,"鎈":15204,"鎊":15205,"鎋":15206,"鎌":15207,"鎏":15208,"鎔":15209,"鎖":15210,"鎗":15211,"鎘":15212,"鎚":15213,"鎛":15214,"鎡":15215,"鎢":15216,"鎣":15217,"鎤":15218,"鎦":15219,"鎧":15220,"鎨":15221,"鎩":15222,"鎬":15223,"鎭":15224,"鎮":15225,"鎰":15226,"鎲":15227,"鎶":15228,"鎷":15229,"鎹":15230,"鎺":15231,"鏁":15232,"鏃":15233,"鏆":15234,"鏇":15235,"鏈":15236,"鏉":15237,"鏊":15238,"鏋":15239,"鏌":15240,"鏐":15241,"鏑":15242,"鏓":15243,"鏖":15244,"鏗":15245,"鏘":15246,"鏙":15247,"鏛":15248,"鏜":15249,"鏝":15250,"鏞":15251,"鏟":15252,"鏡":15253,"鏢":15254,"鏤":15255,"鏥":15256,"鏦":15257,"鏧":15258,"鏨":15259,"鏱":15260,"鏳":15261,"鏵":15262,"鏶":15263,"鏸":15264,"鏺":15265,"鏻":15266,"鏽":15267,"鐃":15268,"鐄":15269,"鐇":15270,"鐉":15271,"鐎":15272,"鐏":15273,"鐐":15274,"鐒":15275,"鐓":15276,"鐔":15277,"鐕":15278,"鐘":15279,"鐙":15280,"鐚":15281,"鐡":15282,"鐤":15283,"鐥":15284,"鐧":15285,"鐫":15286,"鐮":15287,"鐰":15288,"鐲":15289,"鐳":15290,"鐴":15291,"鐵":15292,"鐶":15293,"鐸":15294,"鐺":15295,"鐻":15296,"鐽":15297,"鐿":15298,"鑀":15299,"鑁":15300,"鑂":15301,"鑃":15302,"鑄":15303,"鑅":15304,"鑇":15305,"鑈":15306,"鑊":15307,"鑌":15308,"鑑":15309,"鑒":15310,"鑓":15311,"鑕":15312,"鑚":15313,"鑛":15314,"鑞":15315,"鑠":15316,"鑢":15317,"鑣":15318,"鑥":15319,"鑨":15320,"鑪":15321,"鑫":15322,"鑭":15323,"鑯":15324,"鑰":15325,"鑱":15326,"鑲":15327,"鑴":15328,"鑵":15329,"鑷":15330,"鑼":15331,"鑽":15332,"鑾":15333,"鑿":15334,"钁":15335,"钅":15336,"针":15337,"钉":15338,"钊":15339,"钒":15340,"钓":15341,"钘":15342,"钙":15343,"钞":15344,"钟":15345,"钢":15346,"钦":15347,"钧":15348,"钩":15349,"钫":15350,"钰":15351,"钱":15352,"钹":15353,"钻":15354,"铁":15355,"铃":15356,"铉":15357,"铊":15358,"铜":15359,"铝":15360,"铟":15361,"铠":15362,"铫":15363,"铭":15364,"铵":15365,"银":15366,"铸":15367,"铺":15368,"链":15369,"铿":15370,"销":15371,"锁":15372,"锅":15373,"锈":15374,"锋":15375,"锌":15376,"锐":15377,"错":15378,"锜":15379,"锟":15380,"锡":15381,"锣":15382,"锤":15383,"锦":15384,"锭":15385,"键":15386,"锵":15387,"锺":15388,"锻":15389,"镀":15390,"镁":15391,"镆":15392,"镇":15393,"镐":15394,"镒":15395,"镕":15396,"镖":15397,"镜":15398,"镥":15399,"镰":15400,"長":15401,"镸":15402,"长":15403,"門":15404,"閂":15405,"閃":15406,"閄":15407,"閆":15408,"閇":15409,"閈":15410,"閉":15411,"閊":15412,"開":15413,"閎":15414,"閏":15415,"閑":15416,"閒":15417,"間":15418,"閔":15419,"閖":15420,"閗":15421,"閘":15422,"閞":15423,"閟":15424,"閠":15425,"閡":15426,"関":15427,"閣":15428,"閤":15429,"閥":15430,"閦":15431,"閧":15432,"閨":15433,"閩":15434,"閫":15435,"閬":15436,"閭":15437,"閱":15438,"閲":15439,"閴":15440,"閶":15441,"閹":15442,"閻":15443,"閼":15444,"閽":15445,"閾":15446,"閿":15447,"闃":15448,"闆":15449,"闇":15450,"闈":15451,"闉":15452,"闊":15453,"闋":15454,"闌":15455,"闍":15456,"闐":15457,"闓":15458,"闔":15459,"闕":15460,"闖":15461,"闘":15462,"闚":15463,"關":15464,"闞":15465,"闟":15466,"闡":15467,"闢":15468,"闤":15469,"闥":15470,"门":15471,"闪":15472,"闫":15473,"闭":15474,"问":15475,"闯":15476,"闰":15477,"闲":15478,"间":15479,"闵":15480,"闷":15481,"闸":15482,"闹":15483,"闻":15484,"闽":15485,"闾":15486,"阁":15487,"阅":15488,"阆":15489,"阎":15490,"阐":15491,"阔":15492,"阜":15493,"阝":15494,"队":15495,"阡":15496,"阢":15497,"阤":15498,"阨":15499,"阪":15500,"阬":15501,"阮":15502,"阯":15503,"阱":15504,"防":15505,"阳":15506,"阴":15507,"阵":15508,"阶":15509,"阷":15510,"阻":15511,"阼":15512,"阽":15513,"阿":15514,"陀":15515,"陁":15516,"陂":15517,"附":15518,"际":15519,"陆":15520,"陇":15521,"陈":15522,"陉":15523,"陋":15524,"陌":15525,"降":15526,"陏":15527,"限":15528,"陔":15529,"陕":15530,"陖":15531,"陘":15532,"陛":15533,"陜":15534,"陝":15535,"陞":15536,"陟":15537,"陡":15538,"院":15539,"陣":15540,"除":15541,"陥":15542,"陦":15543,"险":15544,"陪":15545,"陬":15546,"陭":15547,"陰":15548,"陲":15549,"陳":15550,"陴":15551,"陵":15552,"陶":15553,"陷":15554,"陸":15555,"険":15556,"陽":15557,"陿":15558,"隂":15559,"隃":15560,"隄":15561,"隅":15562,"隆":15563,"隈":15564,"隉":15565,"隊":15566,"隋":15567,"隍":15568,"階":15569,"随":15570,"隐":15571,"隔":15572,"隕":15573,"隗":15574,"隘":15575,"隙":15576,"際":15577,"障":15578,"隝":15579,"隞":15580,"隠":15581,"隣":15582,"隤":15583,"隥":15584,"隧":15585,"隨":15586,"隩":15587,"險":15588,"隰":15589,"隱":15590,"隲":15591,"隳":15592,"隴":15593,"隶":15594,"隷":15595,"隸":15596,"隹":15597,"隺":15598,"隻":15599,"隼":15600,"难":15601,"雀":15602,"雁":15603,"雄":15604,"雅":15605,"集":15606,"雇":15607,"雉":15608,"雊":15609,"雋":15610,"雌":15611,"雍":15612,"雎":15613,"雏":15614,"雑":15615,"雒":15616,"雕":15617,"雖":15618,"雙":15619,"雚":15620,"雛":15621,"雜":15622,"雝":15623,"雞":15624,"離":15625,"難":15626,"雧":15627,"雨":15628,"雩":15629,"雪":15630,"雫":15631,"雯":15632,"雰":15633,"雱":15634,"雲":15635,"雳":15636,"零":15637,"雷":15638,"雹":15639,"電":15640,"雾":15641,"需":15642,"霄":15643,"霅":15644,"霆":15645,"震":15646,"霈":15647,"霉":15648,"霊":15649,"霍":15650,"霎":15651,"霏":15652,"霑":15653,"霓":15654,"霖":15655,"霙":15656,"霜":15657,"霝":15658,"霞":15659,"霣":15660,"霤":15661,"霧":15662,"霨":15663,"霫":15664,"霬":15665,"霰":15666,"露":15667,"霳":15668,"霸":15669,"霹":15670,"霽":15671,"霾":15672,"靁":15673,"靂":15674,"靄":15675,"靆":15676,"靇":15677,"靈":15678,"靉":15679,"靍":15680,"靏":15681,"靑":15682,"青":15683,"靖":15684,"靗":15685,"靘":15686,"静":15687,"靚":15688,"靛":15689,"靜":15690,"非":15691,"靠":15692,"靡":15693,"面":15694,"靦":15695,"靨":15696,"革":15697,"靫":15698,"靬":15699,"靭":15700,"靮":15701,"靱":15702,"靳":15703,"靴":15704,"靶":15705,"靷":15706,"靹":15707,"靺":15708,"靼":15709,"鞀":15710,"鞁":15711,"鞄":15712,"鞅":15713,"鞆":15714,"鞉":15715,"鞋":15716,"鞍":15717,"鞏":15718,"鞐":15719,"鞓":15720,"鞕":15721,"鞖":15722,"鞗":15723,"鞘":15724,"鞙":15725,"鞜":15726,"鞞":15727,"鞠":15728,"鞢":15729,"鞣":15730,"鞦":15731,"鞨":15732,"鞫":15733,"鞬":15734,"鞭":15735,"鞮":15736,"鞱":15737,"鞲":15738,"鞴":15739,"鞶":15740,"鞾":15741,"韁":15742,"韃":15743,"韆":15744,"韈":15745,"韉":15746,"韋":15747,"韌":15748,"韍":15749,"韎":15750,"韐":15751,"韑":15752,"韓":15753,"韘":15754,"韙":15755,"韛":15756,"韜":15757,"韞":15758,"韡":15759,"韦":15760,"韧":15761,"韩":15762,"韫":15763,"韬":15764,"韭":15765,"韮":15766,"韰":15767,"韲":15768,"音":15769,"韴":15770,"韵":15771,"韶":15772,"韺":15773,"韻":15774,"響":15775,"頀":15776,"頁":15777,"頂":15778,"頃":15779,"頄":15780,"項":15781,"順":15782,"須":15783,"頊":15784,"頌":15785,"頍":15786,"頎":15787,"頏":15788,"預":15789,"頑":15790,"頒":15791,"頓":15792,"頔":15793,"頖":15794,"頗":15795,"領":15796,"頚":15797,"頜":15798,"頞":15799,"頟":15800,"頠":15801,"頡":15802,"頣":15803,"頤":15804,"頥":15805,"頫":15806,"頬":15807,"頭":15808,"頰":15809,"頲":15810,"頴":15811,"頵":15812,"頷":15813,"頸":15814,"頹":15815,"頻":15816,"頼":15817,"頽":15818,"顆":15819,"顋":15820,"題":15821,"額":15822,"顎":15823,"顏":15824,"顒":15825,"顓":15826,"顔":15827,"顕":15828,"顖":15829,"顗":15830,"願":15831,"顙":15832,"顚":15833,"顛":15834,"類":15835,"顥":15836,"顧":15837,"顨":15838,"顫":15839,"顬":15840,"顯":15841,"顰":15842,"顱":15843,"顳":15844,"顴":15845,"页":15846,"顶":15847,"项":15848,"顺":15849,"须":15850,"顾":15851,"顿":15852,"颁":15853,"颂":15854,"预":15855,"领":15856,"颇":15857,"颈":15858,"颉":15859,"颍":15860,"颐":15861,"频":15862,"颖":15863,"题":15864,"颜":15865,"额":15866,"颠":15867,"風":15868,"颪":15869,"颮":15870,"颯":15871,"颰":15872,"颱":15873,"颶":15874,"颷":15875,"颸":15876,"颺":15877,"颿":15878,"飂":15879,"飃":15880,"飄":15881,"飆":15882,"飇":15883,"飈":15884,"风":15885,"飘":15886,"飚":15887,"飛":15888,"飜":15889,"飝":15890,"飞":15891,"食":15892,"飠":15893,"飡":15894,"飢":15895,"飣":15896,"飤":15897,"飥":15898,"飧":15899,"飩":15900,"飪":15901,"飫":15902,"飭":15903,"飮":15904,"飯":15905,"飲":15906,"飳":15907,"飴":15908,"飵":15909,"飼":15910,"飽":15911,"飾":15912,"餃":15913,"餄":15914,"餅":15915,"餈":15916,"餉":15917,"養":15918,"餌":15919,"餎":15920,"餐":15921,"餑":15922,"餒":15923,"餓":15924,"餔":15925,"餗":15926,"餘":15927,"餚":15928,"餛":15929,"餜":15930,"餝":15931,"餞":15932,"餠":15933,"餡":15934,"餢":15935,"餤":15936,"館":15937,"餫":15938,"餬":15939,"餮":15940,"餲":15941,"餳":15942,"餵":15943,"餺":15944,"餻":15945,"餼":15946,"餽":15947,"餾":15948,"饁":15949,"饂":15950,"饃":15951,"饅":15952,"饆":15953,"饉":15954,"饊":15955,"饋":15956,"饌":15957,"饍":15958,"饐":15959,"饑":15960,"饒":15961,"饔":15962,"饕":15963,"饗":15964,"饘":15965,"饟":15966,"饠":15967,"饢":15968,"饣":15969,"饥":15970,"饨":15971,"饭":15972,"饮":15973,"饰":15974,"饱":15975,"饶":15976,"饸":15977,"饹":15978,"饺":15979,"饼":15980,"饿":15981,"馀":15982,"馃":15983,"馄":15984,"馆":15985,"馊":15986,"馍":15987,"馒":15988,"馕":15989,"首":15990,"馗":15991,"馘":15992,"香":15993,"馛":15994,"馞":15995,"馣":15996,"馥":15997,"馨":15998,"馬":15999,"馭":16000,"馮":16001,"馯":16002,"馰":16003,"馱":16004,"馳":16005,"馴":16006,"馹":16007,"馺":16008,"馼":16009,"馿":16010,"駀":16011,"駁":16012,"駃":16013,"駄":16014,"駅":16015,"駆":16016,"駈":16017,"駉":16018,"駐":16019,"駑":16020,"駒":16021,"駓":16022,"駔":16023,"駕":16024,"駘":16025,"駙":16026,"駛":16027,"駝":16028,"駞":16029,"駟":16030,"駢":16031,"駧":16032,"駩":16033,"駭":16034,"駮":16035,"駰":16036,"駱":16037,"駲":16038,"駵":16039,"駸":16040,"駹":16041,"駻":16042,"駼":16043,"駿":16044,"騁":16045,"騂":16046,"騃":16047,"騄":16048,"騅":16049,"騆":16050,"騈":16051,"騊":16052,"騋":16053,"騌":16054,"騍":16055,"騎":16056,"騏":16057,"騑":16058,"騒":16059,"験":16060,"騖":16061,"騙":16062,"騟":16063,"騠":16064,"騣":16065,"騤":16066,"騧":16067,"騨":16068,"騩":16069,"騫":16070,"騭":16071,"騮":16072,"騰":16073,"騱":16074,"騶":16075,"騷":16076,"騸":16077,"騾":16078,"驀":16079,"驁":16080,"驂":16081,"驃":16082,"驄":16083,"驅":16084,"驊":16085,"驌":16086,"驍":16087,"驎":16088,"驒":16089,"驕":16090,"驗":16091,"驘":16092,"驚":16093,"驛":16094,"驟":16095,"驡":16096,"驢":16097,"驤":16098,"驥":16099,"驩":16100,"驪":16101,"驫":16102,"马":16103,"驭":16104,"驯":16105,"驰":16106,"驱":16107,"驴":16108,"驶":16109,"驻":16110,"驼":16111,"驾":16112,"驿":16113,"骁":16114,"骂":16115,"骄":16116,"骊":16117,"验":16118,"骏":16119,"骑":16120,"骗":16121,"骚":16122,"骨":16123,"骭":16124,"骰":16125,"骵":16126,"骶":16127,"骷":16128,"骸":16129,"骼":16130,"髀":16131,"髁":16132,"髃":16133,"髄":16134,"髆":16135,"髎":16136,"髏":16137,"髐":16138,"髑":16139,"髒":16140,"髓":16141,"體":16142,"髕":16143,"髖":16144,"高":16145,"髙":16146,"髞":16147,"髟":16148,"髠":16149,"髢":16150,"髣":16151,"髥":16152,"髦":16153,"髧":16154,"髪":16155,"髫":16156,"髭":16157,"髮":16158,"髯":16159,"髱":16160,"髲":16161,"髴":16162,"髷":16163,"髹":16164,"髺":16165,"髻":16166,"髾":16167,"鬂":16168,"鬃":16169,"鬆":16170,"鬉":16171,"鬍":16172,"鬐":16173,"鬘":16174,"鬙":16175,"鬚":16176,"鬛":16177,"鬟":16178,"鬠":16179,"鬢":16180,"鬣":16181,"鬥":16182,"鬦":16183,"鬧":16184,"鬨":16185,"鬩":16186,"鬪":16187,"鬬":16188,"鬭":16189,"鬮":16190,"鬯":16191,"鬱":16192,"鬲":16193,"鬴":16194,"鬷":16195,"鬹":16196,"鬻":16197,"鬼":16198,"魁":16199,"魂":16200,"魃":16201,"魄":16202,"魅":16203,"魇":16204,"魈":16205,"魉":16206,"魋":16207,"魍":16208,"魎":16209,"魏":16210,"魑":16211,"魒":16212,"魓":16213,"魔":16214,"魕":16215,"魘":16216,"魚":16217,"魛":16218,"魞":16219,"魟":16220,"魣":16221,"魦":16222,"魨":16223,"魩":16224,"魪":16225,"魬":16226,"魯":16227,"魱":16228,"魲":16229,"魳":16230,"魴":16231,"魵":16232,"魷":16233,"魸":16234,"魹":16235,"魽":16236,"魿":16237,"鮀":16238,"鮁":16239,"鮃":16240,"鮄":16241,"鮅":16242,"鮇":16243,"鮈":16244,"鮉":16245,"鮊":16246,"鮋":16247,"鮍":16248,"鮎":16249,"鮏":16250,"鮐":16251,"鮑":16252,"鮒":16253,"鮓":16254,"鮕":16255,"鮖":16256,"鮗":16257,"鮘":16258,"鮙":16259,"鮚":16260,"鮜":16261,"鮞":16262,"鮟":16263,"鮠":16264,"鮣":16265,"鮥":16266,"鮦":16267,"鮧":16268,"鮨":16269,"鮪":16270,"鮫":16271,"鮬":16272,"鮭":16273,"鮮":16274,"鮰":16275,"鮱":16276,"鮲":16277,"鮴":16278,"鮶":16279,"鮸":16280,"鮹":16281,"鮺":16282,"鯀":16283,"鯁":16284,"鯂":16285,"鯃":16286,"鯆":16287,"鯇":16288,"鯈":16289,"鯉":16290,"鯊":16291,"鯎":16292,"鯏":16293,"鯐":16294,"鯑":16295,"鯒":16296,"鯓":16297,"鯔":16298,"鯕":16299,"鯖":16300,"鯛":16301,"鯝":16302,"鯟":16303,"鯠":16304,"鯡":16305,"鯢":16306,"鯣":16307,"鯤":16308,"鯥":16309,"鯦":16310,"鯧":16311,"鯨":16312,"鯪":16313,"鯭":16314,"鯮":16315,"鯯":16316,"鯰":16317,"鯱":16318,"鯲":16319,"鯳":16320,"鯵":16321,"鯶":16322,"鯷":16323,"鯸":16324,"鯺":16325,"鯽":16326,"鯿":16327,"鰀":16328,"鰂":16329,"鰄":16330,"鰆":16331,"鰈":16332,"鰉":16333,"鰊":16334,"鰋":16335,"鰌":16336,"鰍":16337,"鰐":16338,"鰒":16339,"鰓":16340,"鰔":16341,"鰕":16342,"鰖":16343,"鰘":16344,"鰙":16345,"鰛":16346,"鰜":16347,"鰝":16348,"鰞":16349,"鰡":16350,"鰢":16351,"鰣":16352,"鰤":16353,"鰥":16354,"鰧":16355,"鰨":16356,"鰩":16357,"鰪":16358,"鰭":16359,"鰮":16360,"鰯":16361,"鰰":16362,"鰱":16363,"鰲":16364,"鰵":16365,"鰶":16366,"鰷":16367,"鰹":16368,"鰺":16369,"鰻":16370,"鰼":16371,"鰽":16372,"鰾":16373,"鱀":16374,"鱁":16375,"鱂":16376,"鱃":16377,"鱄":16378,"鱅":16379,"鱆":16380,"鱇":16381,"鱈":16382,"鱉":16383,"鱊":16384,"鱍":16385,"鱏":16386,"鱒":16387,"鱓":16388,"鱔":16389,"鱖":16390,"鱗":16391,"鱘":16392,"鱚":16393,"鱛":16394,"鱝":16395,"鱟":16396,"鱠":16397,"鱢":16398,"鱣":16399,"鱤":16400,"鱥":16401,"鱧":16402,"鱨":16403,"鱩":16404,"鱪":16405,"鱫":16406,"鱬":16407,"鱭":16408,"鱮":16409,"鱰":16410,"鱲":16411,"鱵":16412,"鱶":16413,"鱷":16414,"鱸":16415,"鱺":16416,"鱼":16417,"鱿":16418,"鲁":16419,"鲃":16420,"鲈":16421,"鲍":16422,"鲎":16423,"鲜":16424,"鲟":16425,"鲢":16426,"鲤":16427,"鲨":16428,"鲫":16429,"鲲":16430,"鲳":16431,"鲸":16432,"鳅":16433,"鳌":16434,"鳍":16435,"鳕":16436,"鳙":16437,"鳜":16438,"鳝":16439,"鳞":16440,"鳟":16441,"鳥":16442,"鳧":16443,"鳩":16444,"鳫":16445,"鳰":16446,"鳲":16447,"鳳":16448,"鳴":16449,"鳶":16450,"鴂":16451,"鴃":16452,"鴅":16453,"鴆":16454,"鴇":16455,"鴈":16456,"鴉":16457,"鴋":16458,"鴌":16459,"鴎":16460,"鴒":16461,"鴕":16462,"鴗":16463,"鴛":16464,"鴜":16465,"鴝":16466,"鴞":16467,"鴟":16468,"鴠":16469,"鴡":16470,"鴣":16471,"鴦":16472,"鴨":16473,"鴪":16474,"鴫":16475,"鴬":16476,"鴲":16477,"鴴":16478,"鴷":16479,"鴻":16480,"鴽":16481,"鴾":16482,"鴿":16483,"鵁":16484,"鵂":16485,"鵃":16486,"鵄":16487,"鵆":16488,"鵇":16489,"鵈":16490,"鵐":16491,"鵑":16492,"鵒":16493,"鵓":16494,"鵔":16495,"鵙":16496,"鵜":16497,"鵝":16498,"鵞":16499,"鵟":16500,"鵠":16501,"鵡":16502,"鵢":16503,"鵤":16504,"鵥":16505,"鵩":16506,"鵬":16507,"鵮":16508,"鵯":16509,"鵰":16510,"鵲":16511,"鵳":16512,"鵴":16513,"鵶":16514,"鵷":16515,"鵺":16516,"鵼":16517,"鵾":16518,"鶂":16519,"鶃":16520,"鶆":16521,"鶇":16522,"鶉":16523,"鶊":16524,"鶍":16525,"鶎":16526,"鶏":16527,"鶕":16528,"鶖":16529,"鶗":16530,"鶙":16531,"鶚":16532,"鶡":16533,"鶤":16534,"鶩":16535,"鶫":16536,"鶬":16537,"鶮":16538,"鶯":16539,"鶲":16540,"鶴":16541,"鶵":16542,"鶸":16543,"鶹":16544,"鶺":16545,"鶻":16546,"鶼":16547,"鶿":16548,"鷀":16549,"鷁":16550,"鷂":16551,"鷃":16552,"鷄":16553,"鷆":16554,"鷇":16555,"鷉":16556,"鷏":16557,"鷓":16558,"鷗":16559,"鷙":16560,"鷚":16561,"鷟":16562,"鷣":16563,"鷥":16564,"鷦":16565,"鷧":16566,"鷭":16567,"鷯":16568,"鷰":16569,"鷲":16570,"鷴":16571,"鷸":16572,"鷹":16573,"鷺":16574,"鷽":16575,"鸇":16576,"鸊":16577,"鸌":16578,"鸐":16579,"鸑":16580,"鸓":16581,"鸕":16582,"鸖":16583,"鸙":16584,"鸚":16585,"鸛":16586,"鸜":16587,"鸝":16588,"鸞":16589,"鸟":16590,"鸠":16591,"鸡":16592,"鸢":16593,"鸣":16594,"鸥":16595,"鸦":16596,"鸩":16597,"鸬":16598,"鸭":16599,"鸰":16600,"鸲":16601,"鸻":16602,"鸽":16603,"鸿":16604,"鹂":16605,"鹃":16606,"鹅":16607,"鹆":16608,"鹏":16609,"鹗":16610,"鹘":16611,"鹚":16612,"鹞":16613,"鹡":16614,"鹤":16615,"鹮":16616,"鹰":16617,"鹵":16618,"鹸":16619,"鹹":16620,"鹻":16621,"鹼":16622,"鹽":16623,"鹿":16624,"麀":16625,"麁":16626,"麂":16627,"麃":16628,"麇":16629,"麈":16630,"麊":16631,"麋":16632,"麌":16633,"麏":16634,"麐":16635,"麑":16636,"麒":16637,"麓":16638,"麕":16639,"麖":16640,"麗":16641,"麘":16642,"麛":16643,"麝":16644,"麞":16645,"麟":16646,"麤":16647,"麥":16648,"麦":16649,"麨":16650,"麩":16651,"麪":16652,"麬":16653,"麭":16654,"麯":16655,"麴":16656,"麵":16657,"麸":16658,"麹":16659,"麺":16660,"麻":16661,"麼":16662,"麽":16663,"麾":16664,"麿":16665,"黁":16666,"黃":16667,"黄":16668,"黈":16669,"黉":16670,"黌":16671,"黍":16672,"黎":16673,"黏":16674,"黐":16675,"黑":16676,"黒":16677,"黓":16678,"黔":16679,"默":16680,"黙":16681,"黚":16682,"黛":16683,"黜":16684,"黝":16685,"點":16686,"黟":16687,"黠":16688,"黥":16689,"黧":16690,"黨":16691,"黯":16692,"黰":16693,"黴":16694,"黶":16695,"黷":16696,"黹":16697,"黻":16698,"黼":16699,"黽":16700,"黾":16701,"黿":16702,"鼁":16703,"鼂":16704,"鼃":16705,"鼇":16706,"鼈":16707,"鼉":16708,"鼎":16709,"鼏":16710,"鼐":16711,"鼑":16712,"鼒":16713,"鼓":16714,"鼕":16715,"鼖":16716,"鼗":16717,"鼙":16718,"鼠":16719,"鼡":16720,"鼢":16721,"鼫":16722,"鼬":16723,"鼯":16724,"鼲":16725,"鼴":16726,"鼷":16727,"鼸":16728,"鼹":16729,"鼺":16730,"鼻":16731,"鼾":16732,"齁":16733,"齅":16734,"齇":16735,"齈":16736,"齉":16737,"齊":16738,"齋":16739,"齌":16740,"齍":16741,"齎":16742,"齏":16743,"齐":16744,"齒":16745,"齕":16746,"齟":16747,"齡":16748,"齢":16749,"齣":16750,"齦":16751,"齧":16752,"齩":16753,"齪":16754,"齬":16755,"齮":16756,"齰":16757,"齲":16758,"齶":16759,"齷":16760,"齾":16761,"齿":16762,"龄":16763,"龍":16764,"龐":16765,"龑":16766,"龒":16767,"龔":16768,"龕":16769,"龖":16770,"龗":16771,"龘":16772,"龙":16773,"龚":16774,"龜":16775,"龝":16776,"龞":16777,"龟":16778,"龠":16779,"龢":16780,"龥":16781,"龧":16782,"龱":16783,"龺":16784,"鿃":16785,"ꀒ":16786,"ꀕ":16787,"ꁱ":16788,"ꂷ":16789,"ꅉ":16790,"ꆀ":16791,"ꆈ":16792,"ꆿ":16793,"ꊨ":16794,"ꋩ":16795,"ꌠ":16796,"ꎂ":16797,"ꏃ":16798,"ꏦ":16799,"ꏱ":16800,"ꑤ":16801,"꒱":16802,"Ꙁ":16803,"ꙁ":16804,"ꙋ":16805,"ꙑ":16806,"Ꙗ":16807,"ꙗ":16808,"Ꙟ":16809,"ꙟ":16810,"Ꚓ":16811,"꜒":16812,"꜔":16813,"ꜛ":16814,"ꜜ":16815,"ꜝ":16816,"꜠":16817,"꜡":16818,"Ꜣ":16819,"ꜣ":16820,"ꜰ":16821,"ꜱ":16822,"ꜹ":16823,"Ꝇ":16824,"ꝇ":16825,"Ᵹ":16826,"꞉":16827,"Ꞓ":16828,"ꞵ":16829,"ꟾ":16830,"ꠄ":16831,"ꠉ":16832,"ꠋ":16833,"ꠌ":16834,"ꠍ":16835,"ꠎ":16836,"ꠐ":16837,"ꠘ":16838,"ꠙ":16839,"ꠚ":16840,"ꠞ":16841,"ꠟ":16842,"ꠡ":16843,"ꠣ":16844,"ꠤ":16845,"꠸":16846,"ꡂ":16847,"ꡊ":16848,"ꡎ":16849,"ꡙ":16850,"ꡛ":16851,"ꦁ":16852,"ꦂ":16853,"ꦏ":16854,"ꦑ":16855,"ꦒ":16856,"ꦓ":16857,"ꦕ":16858,"ꦗ":16859,"ꦛ":16860,"ꦝ":16861,"ꦟ":16862,"ꦠ":16863,"ꦡ":16864,"ꦢ":16865,"ꦤ":16866,"ꦥ":16867,"ꦦ":16868,"ꦧ":16869,"ꦩ":16870,"ꦫ":16871,"ꦭ":16872,"ꦮ":16873,"ꦯ":16874,"ꦱ":16875,"ꦲ":16876,"ꦴ":16877,"ꦶ":16878,"ꦸ":16879,"ꦺ":16880,"ꦼ":16881,"꧀":16882,"ꪔ":16883,"ꯀ":16884,"ꯃ":16885,"ꯄ":16886,"ꯇ":16887,"ꯌ":16888,"ꯏ":16889,"ꯐ":16890,"ꯑ":16891,"ꯔ":16892,"ꯛ":16893,"ꯜ":16894,"ꯝ":16895,"ꯤ":16896,"ꯥ":16897,"ꯦ":16898,"ꯩ":16899,"꯬":16900,"꯭":16901,"가":16902,"각":16903,"간":16904,"갇":16905,"갈":16906,"감":16907,"갑":16908,"값":16909,"갓":16910,"갔":16911,"강":16912,"같":16913,"개":16914,"객":16915,"갠":16916,"갤":16917,"갯":16918,"갱":16919,"갸":16920,"걀":16921,"걔":16922,"거":16923,"건":16924,"걷":16925,"걸":16926,"검":16927,"겁":16928,"것":16929,"겉":16930,"게":16931,"겐":16932,"겜":16933,"겟":16934,"겠":16935,"겨":16936,"격":16937,"겪":16938,"견":16939,"결":16940,"겸":16941,"겹":16942,"겼":16943,"경":16944,"곁":16945,"계":16946,"고":16947,"곡":16948,"곤":16949,"골":16950,"곬":16951,"곰":16952,"곱":16953,"곳":16954,"공":16955,"곶":16956,"과":16957,"곽":16958,"관":16959,"괄":16960,"광":16961,"괜":16962,"괴":16963,"굉":16964,"교":16965,"구":16966,"국":16967,"군":16968,"굳":16969,"굴":16970,"굶":16971,"굼":16972,"굽":16973,"굿":16974,"궁":16975,"궉":16976,"권":16977,"궐":16978,"궤":16979,"귀":16980,"귁":16981,"귓":16982,"규":16983,"균":16984,"그":16985,"극":16986,"근":16987,"귿":16988,"글":16989,"금":16990,"급":16991,"긍":16992,"긑":16993,"기":16994,"긱":16995,"긴":16996,"긷":16997,"길":16998,"김":16999,"깁":17000,"깃":17001,"깅":17002,"깊":17003,"깋":17004,"까":17005,"깍":17006,"깐":17007,"깔":17008,"깜":17009,"깝":17010,"깡":17011,"깥":17012,"깨":17013,"깻":17014,"깽":17015,"꺄":17016,"꺼":17017,"꺽":17018,"껌":17019,"껍":17020,"께":17021,"껴":17022,"꼬":17023,"꼭":17024,"꼴":17025,"꼼":17026,"꼽":17027,"꽁":17028,"꽂":17029,"꽃":17030,"꽈":17031,"꽹":17032,"꾀":17033,"꾜":17034,"꾸":17035,"꾹":17036,"꾼":17037,"꿀":17038,"꿈":17039,"꿉":17040,"꿍":17041,"꿔":17042,"꿘":17043,"뀐":17044,"뀨":17045,"끄":17046,"끈":17047,"끊":17048,"끌":17049,"끗":17050,"끝":17051,"끼":17052,"끽":17053,"낀":17054,"낌":17055,"나":17056,"낙":17057,"난":17058,"날":17059,"남":17060,"납":17061,"낫":17062,"났":17063,"낭":17064,"낮":17065,"낯":17066,"내":17067,"낸":17068,"냄":17069,"냅":17070,"냈":17071,"냉":17072,"냐":17073,"냑":17074,"냥":17075,"너":17076,"넉":17077,"넋":17078,"넌":17079,"널":17080,"넓":17081,"넘":17082,"넙":17083,"넛":17084,"넝":17085,"넣":17086,"네":17087,"넥":17088,"넨":17089,"넬":17090,"넷":17091,"넼":17092,"녀":17093,"녁":17094,"년":17095,"녈":17096,"념":17097,"녑":17098,"녕":17099,"녘":17100,"녜":17101,"노":17102,"녹":17103,"논":17104,"놀":17105,"놈":17106,"놉":17107,"농":17108,"높":17109,"놓":17110,"뇌":17111,"뇨":17112,"누":17113,"눈":17114,"눌":17115,"눔":17116,"뉴":17117,"뉼":17118,"늉":17119,"느":17120,"늑":17121,"는":17122,"늘":17123,"늙":17124,"늣":17125,"능":17126,"늦":17127,"늪":17128,"늬":17129,"니":17130,"닉":17131,"닌":17132,"닐":17133,"님":17134,"닙":17135,"닛":17136,"닝":17137,"다":17138,"닥":17139,"닦":17140,"단":17141,"닫":17142,"달":17143,"닭":17144,"닮":17145,"닳":17146,"담":17147,"답":17148,"닷":17149,"당":17150,"닻":17151,"닿":17152,"대":17153,"댁":17154,"댄":17155,"댈":17156,"댐":17157,"댕":17158,"댜":17159,"더":17160,"덕":17161,"던":17162,"덜":17163,"덟":17164,"덤":17165,"덥":17166,"덧":17167,"덩":17168,"덮":17169,"데":17170,"덴":17171,"델":17172,"뎃":17173,"뎅":17174,"뎌":17175,"뎐":17176,"뎨":17177,"도":17178,"독":17179,"돈":17180,"돋":17181,"돌":17182,"돔":17183,"돗":17184,"동":17185,"돛":17186,"돟":17187,"돼":17188,"됐":17189,"되":17190,"된":17191,"될":17192,"됫":17193,"됬":17194,"둏":17195,"두":17196,"둑":17197,"둔":17198,"둘":17199,"둠":17200,"둥":17201,"뒌":17202,"뒤":17203,"뒷":17204,"듀":17205,"듄":17206,"듈":17207,"드":17208,"득":17209,"든":17210,"듣":17211,"들":17212,"듬":17213,"듭":17214,"듯":17215,"등":17216,"디":17217,"딕":17218,"딜":17219,"딥":17220,"딧":17221,"딨":17222,"딩":17223,"딪":17224,"따":17225,"딱":17226,"딴":17227,"딸":17228,"땀":17229,"땅":17230,"때":17231,"땐":17232,"땡":17233,"떠":17234,"떡":17235,"떤":17236,"떨":17237,"떴":17238,"떻":17239,"떼":17240,"뗀":17241,"또":17242,"똑":17243,"똥":17244,"뚜":17245,"뚝":17246,"뚤":17247,"뚫":17248,"뚱":17249,"뛰":17250,"뜨":17251,"뜬":17252,"뜰":17253,"뜻":17254,"뜽":17255,"띄":17256,"띠":17257,"띵":17258,"라":17259,"락":17260,"란":17261,"랄":17262,"람":17263,"랍":17264,"랏":17265,"랐":17266,"랑":17267,"랗":17268,"래":17269,"랙":17270,"랜":17271,"램":17272,"랩":17273,"랫":17274,"랬":17275,"랭":17276,"랴":17277,"략":17278,"량":17279,"러":17280,"럭":17281,"런":17282,"럴":17283,"럼":17284,"럽":17285,"럿":17286,"렀":17287,"렁":17288,"렇":17289,"레":17290,"렉":17291,"렌":17292,"렐":17293,"렘":17294,"렛":17295,"렝":17296,"려":17297,"력":17298,"련":17299,"렬":17300,"렴":17301,"렵":17302,"렷":17303,"렸":17304,"령":17305,"례":17306,"로":17307,"록":17308,"론":17309,"롤":17310,"롬":17311,"롭":17312,"롯":17313,"롱":17314,"뢰":17315,"료":17316,"룡":17317,"루":17318,"룩":17319,"룬":17320,"룰":17321,"룸":17322,"룹":17323,"룻":17324,"룽":17325,"류":17326,"륙":17327,"륜":17328,"률":17329,"륭":17330,"륰":17331,"르":17332,"륵":17333,"른":17334,"를":17335,"름":17336,"릅":17337,"릇":17338,"릉":17339,"릎":17340,"리":17341,"릭":17342,"린":17343,"릴":17344,"림":17345,"립":17346,"릿":17347,"링":17348,"마":17349,"막":17350,"만":17351,"많":17352,"맏":17353,"말":17354,"맑":17355,"맔":17356,"맘":17357,"맛":17358,"망":17359,"맞":17360,"맡":17361,"매":17362,"맥":17363,"맨":17364,"맴":17365,"맵":17366,"맹":17367,"맺":17368,"머":17369,"먹":17370,"먼":17371,"멀":17372,"멈":17373,"멋":17374,"멍":17375,"메":17376,"멘":17377,"멜":17378,"멤":17379,"멧":17380,"멩":17381,"며":17382,"면":17383,"멸":17384,"명":17385,"몇":17386,"몌":17387,"몐":17388,"모":17389,"목":17390,"몫":17391,"몬":17392,"몰":17393,"몸":17394,"몹":17395,"못":17396,"몽":17397,"뫼":17398,"묏":17399,"묘":17400,"묫":17401,"무":17402,"묵":17403,"문":17404,"묻":17405,"물":17406,"뭄":17407,"뭅":17408,"뭇":17409,"뭉":17410,"뭍":17411,"뭐":17412,"뭔":17413,"뭘":17414,"뮤":17415,"뮬":17416,"므":17417,"믄":17418,"믐":17419,"미":17420,"믹":17421,"민":17422,"믿":17423,"밀":17424,"밈":17425,"밋":17426,"밌":17427,"밍":17428,"및":17429,"밑":17430,"바":17431,"박":17432,"밖":17433,"반":17434,"받":17435,"발":17436,"밝":17437,"밟":17438,"밤":17439,"밥":17440,"밧":17441,"방":17442,"밭":17443,"배":17444,"백":17445,"밴":17446,"밸":17447,"뱀":17448,"뱁":17449,"뱃":17450,"뱅":17451,"버":17452,"번":17453,"벌":17454,"범":17455,"법":17456,"벗":17457,"벙":17458,"벚":17459,"벛":17460,"베":17461,"벡":17462,"벤":17463,"벨":17464,"벳":17465,"벼":17466,"벽":17467,"변":17468,"별":17469,"볍":17470,"병":17471,"보":17472,"복":17473,"볶":17474,"본":17475,"볼":17476,"봄":17477,"봇":17478,"봉":17479,"봐":17480,"봔":17481,"봤":17482,"뵈":17483,"뵙":17484,"부":17485,"북":17486,"분":17487,"불":17488,"붉":17489,"붐":17490,"붓":17491,"붕":17492,"붙":17493,"뷔":17494,"뷰":17495,"브":17496,"븐":17497,"블":17498,"비":17499,"빅":17500,"빈":17501,"빌":17502,"빔":17503,"빗":17504,"빙":17505,"빚":17506,"빛":17507,"빠":17508,"빤":17509,"빨":17510,"빱":17511,"빵":17512,"빼":17513,"빽":17514,"뺑":17515,"뺨":17516,"뻐":17517,"뻑":17518,"뻔":17519,"뻡":17520,"뻤":17521,"뻬":17522,"뼈":17523,"뼘":17524,"뽀":17525,"뽐":17526,"뽑":17527,"뽕":17528,"뾰":17529,"뿌":17530,"뿐":17531,"뿔":17532,"뿜":17533,"뿡":17534,"쁘":17535,"쁜":17536,"쁨":17537,"삐":17538,"삥":17539,"사":17540,"삭":17541,"산":17542,"살":17543,"삶":17544,"삼":17545,"삽":17546,"삿":17547,"샀":17548,"상":17549,"새":17550,"색":17551,"샌":17552,"샐":17553,"샘":17554,"샛":17555,"생":17556,"샤":17557,"샴":17558,"샵":17559,"샷":17560,"샹":17561,"섀":17562,"서":17563,"석":17564,"선":17565,"섣":17566,"설":17567,"섬":17568,"섭":17569,"섯":17570,"섰":17571,"성":17572,"세":17573,"섹":17574,"센":17575,"셀":17576,"셋":17577,"셔":17578,"션":17579,"셜":17580,"셧":17581,"셨":17582,"셰":17583,"소":17584,"속":17585,"손":17586,"솔":17587,"솜":17588,"솟":17589,"송":17590,"솥":17591,"쇄":17592,"쇠":17593,"쇼":17594,"숑":17595,"수":17596,"숙":17597,"순":17598,"숟":17599,"술":17600,"숨":17601,"숫":17602,"숭":17603,"숯":17604,"숱":17605,"숲":17606,"쉐":17607,"쉬":17608,"쉭":17609,"쉴":17610,"쉽":17611,"쉿":17612,"슈":17613,"슌":17614,"슐":17615,"스":17616,"슨":17617,"슬":17618,"슳":17619,"슴":17620,"습":17621,"승":17622,"시":17623,"식":17624,"신":17625,"싣":17626,"실":17627,"싫":17628,"심":17629,"십":17630,"싯":17631,"싱":17632,"싶":17633,"싸":17634,"싹":17635,"싼":17636,"쌀":17637,"쌈":17638,"쌍":17639,"쌔":17640,"쌤":17641,"써":17642,"썬":17643,"썰":17644,"썸":17645,"썼":17646,"쎄":17647,"쎈":17648,"쏘":17649,"쏙":17650,"쏜":17651,"쏠":17652,"쏭":17653,"쑤":17654,"쑥":17655,"쓰":17656,"쓱":17657,"쓴":17658,"쓸":17659,"씀":17660,"씌":17661,"씨":17662,"씬":17663,"씻":17664,"씽":17665,"아":17666,"악":17667,"안":17668,"앉":17669,"않":17670,"알":17671,"앓":17672,"암":17673,"압":17674,"앗":17675,"았":17676,"앙":17677,"앞":17678,"애":17679,"액":17680,"앤":17681,"앨":17682,"앰":17683,"앳":17684,"앵":17685,"야":17686,"약":17687,"얀":17688,"얄":17689,"얏":17690,"양":17691,"얗":17692,"얘":17693,"어":17694,"억":17695,"언":17696,"얹":17697,"얼":17698,"엄":17699,"업":17700,"없":17701,"엇":17702,"었":17703,"엉":17704,"엌":17705,"에":17706,"엑":17707,"엔":17708,"엘":17709,"엠":17710,"엣":17711,"여":17712,"역":17713,"엮":17714,"연":17715,"열":17716,"염":17717,"엽":17718,"엿":17719,"였":17720,"영":17721,"옆":17722,"예":17723,"옐":17724,"옛":17725,"오":17726,"옥":17727,"온":17728,"옫":17729,"올":17730,"옮":17731,"옳":17732,"옴":17733,"옵":17734,"옷":17735,"옹":17736,"옻":17737,"와":17738,"완":17739,"왈":17740,"왓":17741,"왔":17742,"왕":17743,"왜":17744,"왠":17745,"외":17746,"왼":17747,"요":17748,"욕":17749,"욜":17750,"용":17751,"우":17752,"욱":17753,"운":17754,"울":17755,"움":17756,"웃":17757,"웅":17758,"웋":17759,"워":17760,"원":17761,"월":17762,"웠":17763,"웨":17764,"웬":17765,"웰":17766,"웹":17767,"웽":17768,"위":17769,"윅":17770,"윈":17771,"윌":17772,"윙":17773,"유":17774,"육":17775,"윤":17776,"율":17777,"융":17778,"윷":17779,"으":17780,"윽":17781,"은":17782,"읃":17783,"을":17784,"읊":17785,"음":17786,"읍":17787,"읏":17788,"응":17789,"읒":17790,"읓":17791,"읔":17792,"읕":17793,"읖":17794,"읗":17795,"의":17796,"이":17797,"익":17798,"인":17799,"일":17800,"읽":17801,"잃":17802,"임":17803,"입":17804,"잇":17805,"있":17806,"잉":17807,"잊":17808,"잋":17809,"잎":17810,"자":17811,"작":17812,"잔":17813,"잖":17814,"잘":17815,"잠":17816,"잡":17817,"잣":17818,"장":17819,"재":17820,"잭":17821,"잼":17822,"잽":17823,"쟁":17824,"쟈":17825,"쟤":17826,"저":17827,"적":17828,"전":17829,"절":17830,"젊":17831,"점":17832,"접":17833,"젓":17834,"정":17835,"젖":17836,"제":17837,"젝":17838,"젠":17839,"젤":17840,"젬":17841,"젯":17842,"져":17843,"젼":17844,"졌":17845,"졔":17846,"조":17847,"족":17848,"존":17849,"졸":17850,"좀":17851,"좁":17852,"종":17853,"좋":17854,"좌":17855,"죄":17856,"죠":17857,"죤":17858,"주":17859,"죽":17860,"준":17861,"줄":17862,"줌":17863,"줍":17864,"줏":17865,"중":17866,"줘":17867,"쥐":17868,"쥔":17869,"쥬":17870,"즈":17871,"즌":17872,"즐":17873,"즘":17874,"즙":17875,"증":17876,"지":17877,"직":17878,"진":17879,"짇":17880,"질":17881,"짐":17882,"집":17883,"짓":17884,"징":17885,"짜":17886,"짝":17887,"짧":17888,"짬":17889,"짱":17890,"째":17891,"쨌":17892,"쨩":17893,"쩌":17894,"쩍":17895,"쩐":17896,"쩔":17897,"쩜":17898,"쩨":17899,"쪼":17900,"쪽":17901,"쫄":17902,"쫑":17903,"쫓":17904,"쭉":17905,"쭙":17906,"쭤":17907,"쮸":17908,"쯔":17909,"쯤":17910,"찌":17911,"찍":17912,"찐":17913,"찔":17914,"찜":17915,"찢":17916,"차":17917,"착":17918,"찬":17919,"찮":17920,"찰":17921,"참":17922,"찹":17923,"찻":17924,"창":17925,"찾":17926,"채":17927,"책":17928,"챌":17929,"챔":17930,"챠":17931,"챤":17932,"처":17933,"척":17934,"천":17935,"철":17936,"첨":17937,"첩":17938,"첫":17939,"청":17940,"체":17941,"첸":17942,"첼":17943,"쳇":17944,"쳐":17945,"쳤":17946,"초":17947,"촉":17948,"촌":17949,"촛":17950,"총":17951,"촨":17952,"촬":17953,"최":17954,"쵸":17955,"추":17956,"축":17957,"춘":17958,"출":17959,"춤":17960,"춧":17961,"충":17962,"취":17963,"츄":17964,"츠":17965,"측":17966,"층":17967,"치":17968,"칙":17969,"친":17970,"칠":17971,"칡":17972,"침":17973,"칩":17974,"칫":17975,"칭":17976,"카":17977,"칵":17978,"칸":17979,"칼":17980,"캄":17981,"캅":17982,"캉":17983,"캐":17984,"캔":17985,"캘":17986,"캠":17987,"캡":17988,"캣":17989,"캥":17990,"캬":17991,"커":17992,"컨":17993,"컬":17994,"컴":17995,"컵":17996,"컷":17997,"케":17998,"켄":17999,"켈":18000,"켓":18001,"켜":18002,"켰":18003,"코":18004,"콕":18005,"콘":18006,"콜":18007,"콤":18008,"콥":18009,"콧":18010,"콩":18011,"콰":18012,"쾌":18013,"쿄":18014,"쿠":18015,"쿡":18016,"쿤":18017,"쿨":18018,"쿵":18019,"퀄":18020,"퀘":18021,"퀴":18022,"퀸":18023,"큐":18024,"큔":18025,"크":18026,"큭":18027,"큰":18028,"클":18029,"키":18030,"킥":18031,"킨":18032,"킬":18033,"킴":18034,"킵":18035,"킹":18036,"타":18037,"탁":18038,"탄":18039,"탈":18040,"탉":18041,"탐":18042,"탑":18043,"탓":18044,"탕":18045,"태":18046,"택":18047,"탣":18048,"탱":18049,"터":18050,"턱":18051,"턴":18052,"털":18053,"텀":18054,"텅":18055,"테":18056,"텍":18057,"텐":18058,"텔":18059,"템":18060,"텟":18061,"텬":18062,"토":18063,"톡":18064,"톤":18065,"톨":18066,"톰":18067,"톱":18068,"통":18069,"퇴":18070,"툇":18071,"투":18072,"툭":18073,"툰":18074,"툴":18075,"퉁":18076,"튀":18077,"튜":18078,"트":18079,"특":18080,"튼":18081,"튿":18082,"틀":18083,"틈":18084,"티":18085,"틱":18086,"틴":18087,"틸":18088,"팀":18089,"팅":18090,"파":18091,"팍":18092,"팎":18093,"판":18094,"팔":18095,"팜":18096,"팝":18097,"팟":18098,"팡":18099,"팥":18100,"패":18101,"팩":18102,"팬":18103,"팰":18104,"팽":18105,"퍅":18106,"퍈":18107,"퍼":18108,"펀":18109,"펄":18110,"펑":18111,"페":18112,"펜":18113,"펨":18114,"펩":18115,"펭":18116,"펲":18117,"펴":18118,"편":18119,"펼":18120,"평":18121,"폐":18122,"포":18123,"폭":18124,"폰":18125,"폴":18126,"폿":18127,"퐁":18128,"표":18129,"푸":18130,"푼":18131,"풀":18132,"품":18133,"풍":18134,"퓨":18135,"프":18136,"픈":18137,"플":18138,"픔":18139,"피":18140,"픽":18141,"핀":18142,"필":18143,"핌":18144,"핍":18145,"핑":18146,"하":18147,"학":18148,"한":18149,"할":18150,"핥":18151,"함":18152,"합":18153,"핫":18154,"항":18155,"해":18156,"핵":18157,"핸":18158,"핻":18159,"햄":18160,"햇":18161,"했":18162,"행":18163,"햏":18164,"햐":18165,"향":18166,"허":18167,"헌":18168,"헐":18169,"험":18170,"헛":18171,"헤":18172,"헨":18173,"헬":18174,"혀":18175,"혁":18176,"현":18177,"혈":18178,"혐":18179,"협":18180,"혔":18181,"형":18182,"혜":18183,"호":18184,"혹":18185,"혼":18186,"홀":18187,"홈":18188,"홉":18189,"홋":18190,"홍":18191,"화":18192,"확":18193,"환":18194,"활":18195,"홧":18196,"황":18197,"홰":18198,"횃":18199,"회":18200,"획":18201,"횟":18202,"횡":18203,"효":18204,"후":18205,"훅":18206,"훈":18207,"훌":18208,"훑":18209,"훔":18210,"훗":18211,"훠":18212,"훤":18213,"훨":18214,"훼":18215,"휘":18216,"휠":18217,"휴":18218,"흉":18219,"흐":18220,"흑":18221,"흔":18222,"흘":18223,"흙":18224,"흠":18225,"흡":18226,"흥":18227,"희":18228,"흰":18229,"히":18230,"힌":18231,"힐":18232,"힘":18233,"힙":18234,"힛":18235,"﨎":18236,"﨏":18237,"﨑":18238,"﨔":18239,"﨟":18240,"﨣":18241,"﨤":18242,"﨧":18243,"﨨":18244,"﨩":18245,"ﬞ":18246,"﷽":18247,"︎":18248,"️":18249,"︠":18250,"︡":18251,"︢":18252,"﹅":18253,"￼":18254,"�":18255,"𐀁":18256,"𐀈":18257,"𐀏":18258,"𐀩":18259,"𐀫":18260,"𐀷":18261,"𐃏":18262,"𐆖":18263,"𐌁":18264,"𐌂":18265,"𐌃":18266,"𐌅":18267,"𐌈":18268,"𐌊":18269,"𐌎":18270,"𐌑":18271,"𐌒":18272,"𐌘":18273,"𐌙":18274,"𐌝":18275,"𐌞":18276,"𐌰":18277,"𐌲":18278,"𐌳":18279,"𐌴":18280,"𐌶":18281,"𐌸":18282,"𐌹":18283,"𐌺":18284,"𐌽":18285,"𐌿":18286,"𐍁":18287,"𐍂":18288,"𐍃":18289,"𐍄":18290,"𐍅":18291,"𐍆":18292,"𐍈":18293,"𐍊":18294,"𐎂":18295,"𐎗":18296,"𐎚":18297,"𐎜":18298,"𐎠":18299,"𐎡":18300,"𐎢":18301,"𐎣":18302,"𐎤":18303,"𐎦":18304,"𐎧":18305,"𐎪":18306,"𐎫":18307,"𐎬":18308,"𐎭":18309,"𐎰":18310,"𐎱":18311,"𐎲":18312,"𐎳":18313,"𐎴":18314,"𐎶":18315,"𐎹":18316,"𐎺":18317,"𐎼":18318,"𐎽":18319,"𐎿":18320,"𐏁":18321,"𐏂":18322,"𐏃":18323,"𐐣":18324,"𐑋":18325,"𐒻":18326,"𐓏":18327,"𐓘":18328,"𐓟":18329,"𐓻":18330,"𐡀":18331,"𐡁":18332,"𐡃":18333,"𐡄":18334,"𐡅":18335,"𐡇":18336,"𐡉":18337,"𐡊":18338,"𐡋":18339,"𐡏":18340,"𐡔":18341,"𐣠":18342,"𐣡":18343,"𐣢":18344,"𐣣":18345,"𐣥":18346,"𐣨":18347,"𐣩":18348,"𐣪":18349,"𐣫":18350,"𐣬":18351,"𐣭":18352,"𐣮":18353,"𐣯":18354,"𐣱":18355,"𐣲":18356,"𐣴":18357,"𐤀":18358,"𐤁":18359,"𐤂":18360,"𐤃":18361,"𐤄":18362,"𐤅":18363,"𐤆":18364,"𐤇":18365,"𐤈":18366,"𐤉":18367,"𐤊":18368,"𐤋":18369,"𐤌":18370,"𐤍":18371,"𐤎":18372,"𐤏":18373,"𐤐":18374,"𐤑":18375,"𐤒":18376,"𐤓":18377,"𐤔":18378,"𐤕":18379,"𐤟":18380,"𐤠":18381,"𐤡":18382,"𐤦":18383,"𐤩":18384,"𐤬":18385,"𐤭":18386,"𐤲":18387,"𐤳":18388,"𐩢":18389,"𐩣":18390,"𐩧":18391,"𐩬":18392,"𐩲":18393,"𐩺":18394,"𐭀":18395,"𐭂":18396,"𐭃":18397,"𐭅":18398,"𐭆":18399,"𐭉":18400,"𐭊":18401,"𐭌":18402,"𐭎":18403,"𐭐":18404,"𐭓":18405,"𐭔":18406,"𐭕":18407,"𐭠":18408,"𐭣":18409,"𐭥":18410,"𐭦":18411,"𐭧":18412,"𐭨":18413,"𐭩":18414,"𐭪":18415,"𐭫":18416,"𐭬":18417,"𐭭":18418,"𐭮":18419,"𐭯":18420,"𐭰":18421,"𐭱":18422,"𐭲":18423,"𐰀":18424,"𐰃":18425,"𐰆":18426,"𐰇":18427,"𐰕":18428,"𐰛":18429,"𐰪":18430,"𐰭":18431,"𐰰":18432,"𐰸":18433,"𐰺":18434,"𐰼":18435,"𐰿":18436,"𐱃":18437,"𐱅":18438,"𐲢":18439,"𐲥":18440,"𐳀":18441,"𐳉":18442,"𐳋":18443,"𐳎":18444,"𐳓":18445,"𐳗":18446,"𐳘":18447,"𐳛":18448,"𐳢":18449,"𐳤":18450,"𐳮":18451,"𑀁":18452,"𑀥":18453,"𑀩":18454,"𑀫":18455,"𑢡":18456,"𑢢":18457,"𑢪":18458,"𑢯":18459,"𑢵":18460,"𑣗":18461,"𑣙":18462,"𑣜":18463,"𒀀":18464,"𒀉":18465,"𒀊":18466,"𒀔":18467,"𒀕":18468,"𒀜":18469,"𒀝":18470,"𒀠":18471,"𒀭":18472,"𒀸":18473,"𒁀":18474,"𒁈":18475,"𒁓":18476,"𒁕":18477,"𒁷":18478,"𒁺":18479,"𒂅":18480,"𒂆":18481,"𒂊":18482,"𒂍":18483,"𒂗":18484,"𒂠":18485,"𒂵":18486,"𒃡":18487,"𒃶":18488,"𒃾":18489,"𒄀":18490,"𒄊":18491,"𒄑":18492,"𒄒":18493,"𒄖":18494,"𒄩":18495,"𒄫":18496,"𒄭":18497,"𒄴":18498,"𒄿":18499,"𒅁":18500,"𒅅":18501,"𒅆":18502,"𒅋":18503,"𒅍":18504,"𒅎":18505,"𒅖":18506,"𒅗":18507,"𒅴":18508,"𒆍":18509,"𒆕":18510,"𒆠":18511,"𒆤":18512,"𒆧":18513,"𒆳":18514,"𒆵":18515,"𒆷":18516,"𒇸":18517,"𒇻":18518,"𒇽":18519,"𒈗":18520,"𒈝":18521,"𒈠":18522,"𒈥":18523,"𒈦":18524,"𒈨":18525,"𒈪":18526,"𒈲":18527,"𒈹":18528,"𒈾":18529,"𒉈":18530,"𒉌":18531,"𒉎":18532,"𒉢":18533,"𒉣":18534,"𒉺":18535,"𒉿":18536,"𒊏":18537,"𒊑":18538,"𒊒":18539,"𒊕":18540,"𒊩":18541,"𒊭":18542,"𒊮":18543,"𒊹":18544,"𒋀":18545,"𒋗":18546,"𒋛":18547,"𒋢":18548,"𒋧":18549,"𒋩":18550,"𒋫":18551,"𒋳":18552,"𒋼":18553,"𒋾":18554,"𒌅":18555,"𒌆":18556,"𒌋":18557,"𒌍":18558,"𒌑":18559,"𒌓":18560,"𒌝":18561,"𒌦":18562,"𒌵":18563,"𒌷":18564,"𒍢":18565,"𒍪":18566,"𓀀":18567,"𓀭":18568,"𓀰":18569,"𓁐":18570,"𓂋":18571,"𓄤":18572,"𓄿":18573,"𓅜":18574,"𓇋":18575,"𓇌":18576,"𓇍":18577,"𓇳":18578,"𓈌":18579,"𓈖":18580,"𓈗":18581,"𓊃":18582,"𓌙":18583,"𓍘":18584,"𓎡":18585,"𓏏":18586,"𓏤":18587,"𓏥":18588,"𓏭":18589,"𓐍":18590,"𔐓":18591,"𔗷":18592,"𛀀":18593,"𛀁":18594,"𛀆":18595,"𛀇":18596,"𛀈":18597,"𛀉":18598,"𛀙":18599,"𛀳":18600,"𛀸":18601,"𛁅":18602,"𛁈":18603,"𛁛":18604,"𛁣":18605,"𛁪":18606,"𛁭":18607,"𛂞":18608,"𛂡":18609,"𛂦":18610,"𛂰":18611,"𛂱":18612,"𛂲":18613,"𛃥":18614,"𛄚":18615,"𛅐":18616,"𛅑":18617,"𛅤":18618,"𛅥":18619,"𛅦":18620,"𛅧":18621,"𝄇":18622,"𝄋":18623,"𝄞":18624,"𝄪":18625,"𝄫":18626,"𝍲":18627,"𝍳":18628,"𝍴":18629,"𝍵":18630,"𝍶":18631,"𝍷":18632,"𝍸":18633,"🄋":18634,"🄌":18635,"🅐":18636,"🅟":18637,"🅰":18638,"🅱":18639,"🅾":18640,"🅿":18641,"🆎":18642,"🆏":18643,"🆔":18644,"🇨":18645,"🇩":18646,"🇪":18647,"🇫":18648,"🇬":18649,"🇭":18650,"🇮":18651,"🇯":18652,"🇰":18653,"🇳":18654,"🇵":18655,"🇷":18656,"🇸":18657,"🇹":18658,"🇺":18659,"🌀":18660,"🌁":18661,"🌂":18662,"🌃":18663,"🌈":18664,"🌍":18665,"🌏":18666,"🌐":18667,"🌕":18668,"🌙":18669,"🌟":18670,"🌠":18671,"🌱":18672,"🌶":18673,"🌸":18674,"🌺":18675,"🌻":18676,"🌼":18677,"🍀":18678,"🍌":18679,"🍏":18680,"🍑":18681,"🍓":18682,"🍙":18683,"🍛":18684,"🍞":18685,"🍨":18686,"🍭":18687,"🍺":18688,"🍼":18689,"🎀":18690,"🎃":18691,"🎄":18692,"🎍":18693,"🎜":18694,"🎝":18695,"🎤":18696,"🎳":18697,"🎵":18698,"🎶":18699,"🎸":18700,"🎹":18701,"🏖":18702,"🏫":18703,"🏳":18704,"🏽":18705,"🐈":18706,"🐐":18707,"🐔":18708,"🐙":18709,"🐠":18710,"🐢":18711,"🐤":18712,"🐰":18713,"🐱":18714,"🐶":18715,"🐸":18716,"🐼":18717,"👀":18718,"👆":18719,"👉":18720,"👌":18721,"👍":18722,"👓":18723,"👨":18724,"👩":18725,"👹":18726,"💁":18727,"💋":18728,"💌":18729,"💕":18730,"💗":18731,"💙":18732,"💛":18733,"💜":18734,"💞":18735,"💢":18736,"💦":18737,"💧":18738,"💩":18739,"💫":18740,"💮":18741,"💯":18742,"💱":18743,"💾":18744,"📅":18745,"📍":18746,"📱":18747,"🔉":18748,"🔊":18749,"🔍":18750,"🔑":18751,"🔘":18752,"🔥":18753,"🔰":18754,"🔴":18755,"🕋":18756,"🖤":18757,"🗻":18758,"🗽":18759,"😃":18760,"😆":18761,"😉":18762,"😊":18763,"😍":18764,"😳":18765,"🙂":18766,"🙊":18767,"🚀":18768,"🚇":18769,"🚗":18770,"🚙":18771,"🚹":18772,"🚺":18773,"🚻":18774,"🚼":18775,"🚽":18776,"🚾":18777,"🜨":18778,"🟥":18779,"🟦":18780,"🤓":18781,"🤷":18782,"🥀":18783,"🥐":18784,"🥖":18785,"🥩":18786,"🥺":18787,"🦁":18788,"🦍":18789,"🦖":18790,"🧸":18791,"𠀋":18792,"𠀑":18793,"𠀧":18794,"𠁠":18795,"𠁳":18796,"𠁷":18797,"𠁻":18798,"𠁼":18799,"𠂂":18800,"𠂄":18801,"𠂅":18802,"𠂢":18803,"𠂤":18804,"𠃅":18805,"𠃇":18806,"𠃈":18807,"𠃉":18808,"𠃊":18809,"𠃋":18810,"𠃌":18811,"𠃍":18812,"𠃎":18813,"𠃏":18814,"𠃐":18815,"𠃑":18816,"𠃒":18817,"𠃓":18818,"𠃔":18819,"𠃕":18820,"𠃖":18821,"𠃗":18822,"𠃘":18823,"𠃙":18824,"𠃚":18825,"𠃛":18826,"𠃜":18827,"𠃝":18828,"𠃞":18829,"𠃟":18830,"𠃠":18831,"𠃡":18832,"𠃢":18833,"𠃣":18834,"𠃤":18835,"𠃥":18836,"𠃦":18837,"𠃧":18838,"𠃨":18839,"𠃩":18840,"𠃪":18841,"𠃫":18842,"𠃬":18843,"𠃭":18844,"𠃮":18845,"𠃯":18846,"𠃰":18847,"𠃱":18848,"𠃲":18849,"𠃳":18850,"𠃴":18851,"𠄇":18852,"𠄈":18853,"𠄉":18854,"𠄊":18855,"𠄋":18856,"𠄎":18857,"𠄏":18858,"𠄔":18859,"𠄕":18860,"𠄙":18861,"𠄝":18862,"𠄞":18863,"𠄟":18864,"𠄠":18865,"𠄡":18866,"𠄤":18867,"𠄩":18868,"𠄳":18869,"𠄶":18870,"𠄷":18871,"𠄻":18872,"𠄼":18873,"𠅨":18874,"𠆢":18875,"𠆭":18876,"𠇇":18877,"𠉞":18878,"𠊎":18879,"𠊛":18880,"𠊱":18881,"𠌫":18882,"𠌯":18883,"𠍋":18884,"𠐤":18885,"𠑺":18886,"𠒇":18887,"𠔭":18888,"𠔻":18889,"𠕇":18890,"𠕲":18891,"𠘑":18892,"𠘦":18893,"𠙶":18894,"𠟼":18895,"𠣮":18896,"𠤩":18897,"𠧋":18898,"𠨡":18899,"𠩤":18900,"𠪳":18901,"𠫾":18902,"𠬠":18903,"𠭯":18904,"𠮟":18905,"𠮭":18906,"𠮷":18907,"𠯮":18908,"𠰢":18909,"𠲎":18910,"𠵇":18911,"𠶢":18912,"𠸄":18913,"𠸗":18914,"𠸛":18915,"𠺕":18916,"𠻰":18917,"𠼛":18918,"𠼢":18919,"𡁵":18920,"𡃙":18921,"𡆢":18922,"𡆥":18923,"𡈼":18924,"𡈽":18925,"𡉏":18926,"𡉕":18927,"𡉻":18928,"𡋀":18929,"𡋗":18930,"𡋽":18931,"𡌛":18932,"𡍄":18933,"𡎟":18934,"𡏞":18935,"𡏦":18936,"𡑝":18937,"𡑮":18938,"𡑱":18939,"𡑵":18940,"𡒉":18941,"𡓁":18942,"𡓏":18943,"𡓳":18944,"𡓾":18945,"𡔈":18946,"𡔖":18947,"𡕀":18948,"𡗶":18949,"𡘯":18950,"𡘷":18951,"𡙇":18952,"𡙧":18953,"𡚴":18954,"𡝕":18955,"𡡇":18956,"𡤓":18957,"𡥤":18958,"𡦂":18959,"𡦹":18960,"𡧃":18961,"𡧑":18962,"𡨸":18963,"𡩛":18964,"𡫡":18965,"𡮈":18966,"𡰥":18967,"𡳳":18968,"𡳾":18969,"𡴫":18970,"𡴬":18971,"𡵢":18972,"𡶀":18973,"𡶌":18974,"𡶛":18975,"𡶡":18976,"𡶫":18977,"𡸇":18978,"𡸳":18979,"𡸴":18980,"𡽫":18981,"𢀓":18982,"𢀛":18983,"𢀳":18984,"𢁐":18985,"𢁑":18986,"𢄂":18987,"𢄓":18988,"𢆥":18989,"𢆫":18990,"𢆯":18991,"𢆲":18992,"𢆴":18993,"𢇓":18994,"𢇖":18995,"𢇲":18996,"𢈘":18997,"𢈴":18998,"𢈻":18999,"𢌞":19000,"𢍺":19001,"𢎒":19002,"𢎕":19003,"𢎖":19004,"𢎗":19005,"𢎘":19006,"𢎙":19007,"𢎜":19008,"𢎞":19009,"𢎧":19010,"𢎵":19011,"𢑎":19012,"𢓜":19013,"𢘑":19014,"𢘿":19015,"𢚂":19016,"𢚸":19017,"𢢝":19018,"𢢼":19019,"𢦏":19020,"𢦒":19021,"𢧳":19022,"𢨋":19023,"𢨣":19024,"𢩢":19025,"𢫵":19026,"𢭐":19027,"𢮦":19028,"𢱿":19029,"𢶉":19030,"𢶷":19031,"𢷄":19032,"𢷋":19033,"𢸍":19034,"𢾺":19035,"𣂑":19036,"𣅶":19037,"𣇃":19038,"𣈜":19039,"𣉙":19040,"𣋀":19041,"𣌒":19042,"𣎃":19043,"𣎞":19044,"𣏌":19045,"𣏐":19046,"𣏜":19047,"𣏟":19048,"𣑥":19049,"𣒱":19050,"𣖮":19051,"𣗄":19052,"𣘓":19053,"𣘺":19054,"𣘻":19055,"𣚴":19056,"𣛠":19057,"𣛦":19058,"𣛧":19059,"𣛭":19060,"𣜌":19061,"𣜬":19062,"𣝅":19063,"𣝣":19064,"𣟧":19065,"𣠰":19066,"𣠶":19067,"𣦵":19068,"𣰰":19069,"𣱰":19070,"𣳫":19071,"𣳬":19072,"𣳾":19073,"𣴎":19074,"𣴓":19075,"𣴜":19076,"𣴴":19077,"𣷭":19078,"𣺽":19079,"𣻅":19080,"𣾼":19081,"𤀘":19082,"𤁒":19083,"𤂬":19084,"𤄃":19085,"𤅶":19086,"𤅷":19087,"𤆼":19088,"𤇅":19089,"𤇜":19090,"𤇥":19091,"𤈜":19092,"𤊅":19093,"𤊟":19094,"𤊥":19095,"𤊫":19096,"𤊹":19097,"𤌤":19098,"𤍘":19099,"𤏐":19100,"𤏸":19101,"𤐜":19102,"𤐤":19103,"𤑫":19104,"𤒹":19105,"𤕌":19106,"𤕍":19107,"𤕓":19108,"𤘓":19109,"𤘩":19110,"𤘽":19111,"𤙭":19112,"𤚥":19113,"𤝗":19114,"𤞼":19115,"𤟱":19116,"𤟹":19117,"𤠝":19118,"𤢖":19119,"𤣰":19120,"𤥿":19121,"𤧶":19122,"𤪠":19123,"𤭖":19124,"𤭯":19125,"𤯝":19126,"𤯩":19127,"𤰃":19128,"𤱂":19129,"𤳆":19130,"𤴔":19131,"𤷱":19132,"𤸎":19133,"𤼸":19134,"𤽾":19135,"𥂕":19136,"𥃻":19137,"𥑻":19138,"𥒥":19139,"𥔲":19140,"𥗽":19141,"𥘺":19142,"𥙩":19143,"𥙿":19144,"𥜸":19145,"𥜹":19146,"𥜺":19147,"𥝱":19148,"𥞫":19149,"𥢓":19150,"𥥛":19151,"𥬊":19152,"𥱋":19153,"𥱲":19154,"𥶄":19155,"𥷻":19156,"𥸮":19157,"𥸯":19158,"𥹠":19159,"𥹷":19160,"𥺊":19161,"𥻨":19162,"𥻵":19163,"𥻸":19164,"𥻹":19165,"𥻻":19166,"𥾽":19167,"𥿽":19168,"𦉢":19169,"𦉰":19170,"𦉱":19171,"𦊆":19172,"𦊚":19173,"𦒹":19174,"𦓐":19175,"𦓔":19176,"𦓙":19177,"𦓝":19178,"𦓡":19179,"𦓢":19180,"𦓣":19181,"𦓿":19182,"𦘒":19183,"𦟐":19184,"𦠆":19185,"𦣝":19186,"𦣻":19187,"𦤾":19188,"𦥃":19189,"𦥑":19190,"𦧜":19191,"𦧟":19192,"𦨭":19193,"𦮙":19194,"𦯶":19195,"𦰡":19196,"𦱳":19197,"𦹗":19198,"𦹯":19199,"𦹵":19200,"𦻙":19201,"𦾔":19202,"𧈢":19203,"𧊒":19204,"𧌇":19205,"𧎜":19206,"𧏛":19207,"𧏡":19208,"𧑤":19209,"𧒽":19210,"𧖱":19211,"𧘇":19212,"𧘔":19213,"𧘕":19214,"𧘲":19215,"𧙖":19216,"𧟨":19217,"𧥱":19218,"𧫷":19219,"𧮾":19220,"𧯄":19221,"𧰥":19222,"𧳜":19223,"𧴫":19224,"𧵑":19225,"𧶛":19226,"𧸘":19227,"𧸝":19228,"𧹼":19229,"𧻚":19230,"𧾷":19231,"𨁂":19232,"𨂃":19233,"𨂊":19234,"𨂻":19235,"𨅮":19236,"𨈭":19237,"𨈺":19238,"𨋓":19239,"𨏍":19240,"𨏩":19241,"𨐄":19242,"𨑮":19243,"𨑻":19244,"𨒒":19245,"𨕫":19246,"𨕭":19247,"𨖲":19248,"𨛬":19249,"𨜒":19250,"𨠣":19251,"𨢇":19252,"𨣎":19253,"𨥈":19254,"𨨗":19255,"𨨞":19256,"𨪙":19257,"𨫍":19258,"𨫤":19259,"𨬊":19260,"𨭆":19261,"𨭻":19262,"𨮁":19263,"𨱛":19264,"𨱽":19265,"𨲢":19266,"𨷶":19267,"𨸏":19268,"𨺉":19269,"𨻧":19270,"𨻻":19271,"𨽶":19272,"𨽿":19273,"𩃙":19274,"𩃳":19275,"𩅦":19276,"𩇯":19277,"𩈘":19278,"𩑛":19279,"𩔇":19280,"𩖃":19281,"𩙻":19282,"𩙿":19283,"𩝐":19284,"𩠼":19285,"𩡋":19286,"𩡤":19287,"𩢴":19288,"𩣡":19289,"𩥇":19290,"𩥭":19291,"𩩓":19292,"𩩫":19293,"𩱲":19294,"𩲃":19295,"𩲈":19296,"𩳁":19297,"𩳐":19298,"𩵄":19299,"𩵋":19300,"𩵝":19301,"𩵽":19302,"𩶗":19303,"𩷑":19304,"𩸞":19305,"𩸶":19306,"𩸽":19307,"𩹄":19308,"𩹉":19309,"𩹷":19310,"𩺊":19311,"𩻩":19312,"𩻸":19313,"𩼕":19314,"𩿡":19315,"𪃹":19316,"𪄥":19317,"𪅀":19318,"𪆧":19319,"𪉖":19320,"𪊍":19321,"𪊫":19322,"𪏰":19323,"𪏽":19324,"𪐔":19325,"𪐕":19326,"𪐖":19327,"𪓵":19328,"𪔠":19329,"𪕰":19330,"𪘵":19331,"𪚢":19332,"𪚥":19333,"𪛖":19334,"𪜈":19335,"𪫧":19336,"𪬦":19337,"𪻆":19338,"𪽶":19339,"𫇠":19340,"𫙮":19341,"𫚕":19342,"𫛉":19343,"𫝓":19344,"𫝼":19345,"𫞂":19346,"𫞔":19347,"𫞬":19348,"𫟉":19349,"𫟰":19350,"𫠉":19351,"𫠓":19352,"𫠗":19353,"𫡷":19354,"𫲨":19355,"𫵾":19356,"𬊌":19357,"𬪍":19358,"𬶮":19359,"𬺰":19360,"𬼀":19361,"𬼟":19362,"𭆂":19363,"𭰣":19364,"𮂻":19365,"𮇎":19366,"󠄀":19367,"󠄁":19368,"󠄂":19369,"󠄃":19370,"󠄄":19371,"󠄈":19372,"する":19373,"いる":19374,"20":19375,"ある":19376,"19":19377,"から":19378,"こと":19379,"して":19380,"れる":19381,"として":19382,"なっ":19383,"によ":19384,"リー":19385,"その":19386,"201":19387,"ない":19388,"200":19389,"など":19390,"ター":19391,"ール":19392,"ため":19393,"日本":19394,"ック":19395,"この":19396,"ラン":19397,"10":19398,"イン":19399,"スト":19400,"ット":19401,"なる":19402,"ング":19403,"いう":19404,"月1":19405,"ート":19406,"2年":19407,"よう":19408,"また":19409,"あっ":19410,"もの":19411,"0年":19412,"まで":19413,"5年":19414,"3年":19415,"ュー":19416,"8年":19417,"1年":19418,"7年":19419,"4年":19420,"ーム":19421,"6年":19422,"あり":19423,"ティ":19424,"ード":19425,"られ":19426,"ディ":19427,"月2":19428,"という":19429,"00":19430,"ント":19431,"って":19432,"ショ":19433,"ライ":19434,"199":19435,"9年":19436,"いて":19437,"18":19438,"学校":19439,"おり":19440,"大学":19441,"リア":19442,"でき":19443,"バー":19444,"12":19445,"かっ":19446,"これ":19447,"ース":19448,"より":19449,"により":19450,"er":19451,")、":19452,"ンド":19453,")。":19454,"放送":19455,"にお":19456,"11":19457,"それ":19458,"198":19459,"ファ":19460,"プロ":19461,"アル":19462,"ジャ":19463,"なり":19464,"昭和":19465,"ップ":19466,"によって":19467,"ーク":19468,"ション":19469,"による":19470,"ける":19471,"レー":19472,"リカ":19473,"なく":19474,"in":19475,"on":19476,"an":19477,"ロー":19478,"コン":19479,"現在":19480,"キャ":19481,"197":19482,"フィ":19483,"だっ":19484,"しか":19485,"カー":19486,"タイ":19487,"東京":19488,"アメ":19489,"チャ":19490,"世界":19491,"ラー":19492,"アメリカ":19493,"英語":19494,"テレ":19495,"える":19496,"リン":19497,"なかっ":19498,"シー":19499,"時代":19500,"ージ":19501,"受け":19502,"使用":19503,"ステ":19504,"シャ":19505,"会社":19506,"スタ":19507,"マン":19508,"196":19509,"できる":19510,"フォ":19511,"登場":19512,"平成":19513,"サー":19514,"en":19515,"場合":19516,"に対":19517,"シュ":19518,"ルー":19519,"につ":19520,"ジョ":19521,"られる":19522,"テレビ":19523,"ar":19524,"とも":19525,"その後":19526,"において":19527,"行わ":19528,"リス":19529,"月1日":19530,"オー":19531,"選手":19532,"について":19533,"研究":19534,"ランド":19535,"or":19536,"しかし":19537,"30":19538,"15":19539,"アン":19540,"める":19541,"クラ":19542,"作品":19543,"多く":19544,"しい":19545,"スター":19546,"194":19547,"サイ":19548,"ベル":19549,"195":19550,"ッド":19551,"17":19552,"番組":19553,"パー":19554,"1日":19555,"ナー":19556,"発売":19557,"16":19558,"レイ":19559,"ジェ":19560,"5日":19561,"たり":19562,"可能":19563,"存在":19564,"たち":19565,"al":19566,"ウェ":19567,"3月":19568,"at":19569,"映画":19570,"フラン":19571,"のみ":19572,"』(":19573,"ーン":19574,"活動":19575,"4月":19576,"開始":19577,"フェ":19578,"エン":19579,"せる":19580,"ダー":19581,"およ":19582,"セン":19583,"しま":19584,"英語版":19585,"バス":19586,"ブル":19587,"当時":19588,"レン":19589,"ヴァ":19590,"es":19591,"コー":19592,"アイ":19593,"同じ":19594,"取り":19595,"オン":19596,"アー":19597,"3日":19598,"サン":19599,"かけ":19600,"ルト":19601,"鉄道":19602,"ニュー":19603,"呼ば":19604,"4日":19605,"および":19606,"一部":19607,"8日":19608,"ヴィ":19609,"6日":19610,"7日":19611,"明治":19612,"ックス":19613,"時間":19614,"ドラ":19615,"ゲーム":19616,"シア":19617,"チーム":19618,"にて":19619,"ic":19620,"メン":19621,"行っ":19622,"ニア":19623,"大き":19624,"なお":19625,"開発":19626,"発表":19627,"リーズ":19628,"トル":19629,"出演":19630,"イツ":19631,"」(":19632,"なが":19633,"代表":19634,"10月":19635,"アルバ":19636,"ニー":19637,"it":19638,"開催":19639,"地域":19640,"同年":19641,"大会":19642,"ウィ":19643,"以降":19644,"193":19645,"変更":19646,"ナル":19647,"ウン":19648,"だけ":19649,"シリーズ":19650,"参加":19651,"st":19652,"関係":19653,"さら":19654,"13":19655,"ドイツ":19656,"14":19657,"シング":19658,"マー":19659,"..":19660,"20年":19661,"カル":19662,"クター":19663,"持つ":19664,"9月":19665,"における":19666,"以下":19667,"レス":19668,"12月":19669,"19年":19670,"出場":19671,"7月":19672,"チェ":19673,"イル":19674,"ブラ":19675,"所属":19676,"キー":19677,"試合":19678,"いっ":19679,"担当":19680,"ながら":19681,"モン":19682,"アルバム":19683,"設置":19684,"大阪":19685,"自分":19686,"利用":19687,"中心":19688,"音楽":19689,"リーグ":19690,"なら":19691,"中国":19692,"共に":19693,"スペ":19694,"デル":19695,"グラ":19696,"ソン":19697,"フランス":19698,"50":19699,"かつ":19700,"株式":19701,"引き":19702,"さらに":19703,"he":19704,"記録":19705,"国際":19706,"以上":19707,"アニ":19708,"8月":19709,"5月":19710,"出身":19711,"事業":19712,"エル":19713,"多い":19714,"ポー":19715,"一般":19716,"イト":19717,"1月":19718,"ビュー":19719,"ズン":19720,"しく":19721,"11月":19722,"6月":19723,"上げ":19724,"自身":19725,"スク":19726,"le":19727,"監督":19728,"攻撃":19729,"高等":19730,"2010年":19731,"行う":19732,"シーズン":19733,"都市":19734,"ジオ":19735,"考え":19736,"に関":19737,"優勝":19738,"ッチ":19739,"収録":19740,"クト":19741,"中央":19742,"委員":19743,"生ま":19744,"イス":19745,"まり":19746,"2日":19747,"シン":19748,"でも":19749,"ジョン":19750,"ウス":19751,"クロ":19752,"必要":19753,"女性":19754,"文化":19755,"教育":19756,"に対して":19757,"知ら":19758,"情報":19759,"小学校":19760,"2009年":19761,"株式会社":19762,"付け":19763,"卒業":19764,"000":19765,"社会":19766,"出し":19767,"ころ":19768,"2011年":19769,"is":19770,"めて":19771,"2008年":19772,"192":19773,"ion":19774,"問題":19775,"2007年":19776,"ネル":19777,"2012年":19778,"9日":19779,"うち":19780,"通り":19781,"リング":19782,"フト":19783,"設立":19784,"ともに":19785,"地方":19786,"ro":19787,"務め":19788,"自動":19789,"事件":19790,"re":19791,"IS":19792,"ビー":19793,"ょう":19794,"ただ":19795,"と共に":19796,"キャラ":19797,"イギ":19798,"用い":19799,"位置":19800,"ほか":19801,"ロン":19802,"ドル":19803,"イギリス":19804,"アニメ":19805,"ほど":19806,"いく":19807,"el":19808,"持ち":19809,"シングル":19810,"ループ":19811,"ジュ":19812,"作曲":19813,"ールド":19814,"ネット":19815,")」":19816,"2013年":19817,"2014年":19818,"とき":19819,"タン":19820,"計画":19821,"マイ":19822,"2015年":19823,"こう":19824,"ーション":19825,"2006年":19826,"2月":19827,"ジン":19828,"結果":19829,"デン":19830,"ol":19831,"パン":19832,"同様":19833,"0年代":19834,"世紀":19835,"2016年":19836,"入れ":19837,"ou":19838,"影響":19839,"まっ":19840,"高校":19841,"わり":19842,"戦争":19843,"とともに":19844,"わっ":19845,"販売":19846,"最終":19847,"km":19848,"終了":19849,"当初":19850,"及び":19851,"2017年":19852,"センター":19853,"最初":19854,"100":19855,"スー":19856,"ッカー":19857,"グループ":19858,"am":19859,"テン":19860,"ガン":19861,"2019年":19862,"トラ":19863,"2018年":19864,"地区":19865,"一方":19866,"メンバー":19867,"ジャー":19868,"建設":19869,"ジア":19870,"機関":19871,"バイ":19872,"生まれ":19873,"人間":19874,"起こ":19875,"ンス":19876,"システ":19877,"マル":19878,"以外":19879,"獲得":19880,"バル":19881,"リスト":19882,"ダイ":19883,"部分":19884,"2005年":19885,"そして":19886,"人物":19887,"et":19888,"システム":19889,"ac":19890,"政府":19891,"技術":19892,"特に":19893,"最後":19894,"選挙":19895,"ハイ":19896,"デー":19897,"合わ":19898,"as":19899,"タル":19900,"制作":19901,"まま":19902,"il":19903,"発生":19904,"かつて":19905,"状態":19906,"ザー":19907,"ヴェ":19908,"オリ":19909,"場所":19910,"ロッ":19911,"ラス":19912,"経済":19913,"入り":19914,"ので":19915,"om":19916,"彼女":19917,"モデル":19918,"40":19919,"ハン":19920,"ガー":19921,"調査":19922,"ぞれ":19923,"それぞれ":19924,"25":19925,"野球":19926,"トリ":19927,"学部":19928,"廃止":19929,"航空":19930,"全国":19931,"または":19932,"メント":19933,"中学校":19934,"施設":19935,"高等学校":19936,"意味":19937,"ところ":19938,"ボー":19939,"たい":19940,"政治":19941,"コミ":19942,"デビュー":19943,"190":19944,"テー":19945,"決定":19946,"しまう":19947,"向け":19948,"2020年":19949,"キャラクター":19950,"教授":19951,"就任":19952,"さん":19953,"女子":19954,"ッシュ":19955,"持っ":19956,"これら":19957,"ものの":19958,"平成2":19959,"に関する":19960,"歴史":19961,"ワー":19962,"一つ":19963,"主義":19964,"公開":19965,"バン":19966,"ケット":19967,"路線":19968,"衆国":19969,"記念":19970,"合衆国":19971,"構成":19972,"ホーム":19973,"戦闘":19974,"ただし":19975,"プリ":19976,"カン":19977,"名前":19978,"契約":19979,"プレ":19980,"ch":19981,"高い":19982,"能力":19983,"ボール":19984,"製造":19985,"ライブ":19986,"ビス":19987,"デザ":19988,"ing":19989,"アナ":19990,"リース":19991,"トン":19992,"IC":19993,"2004年":19994,"全て":19995,"管理":19996,"ダム":19997,"相手":19998,"たる":19999,"列車":20000,"実施":20001,"ビル":20002,"同時":20003,"ロシア":20004,"設定":20005,"車両":20006,"海道":20007,"キング":20008,"公式":20009,"丁目":20010,"of":20011,"191":20012,"採用":20013,"生活":20014,"アメリカ合衆国":20015,"機能":20016,"ロック":20017,"議員":20018,"ファン":20019,"II":20020,"道路":20021,"自動車":20022,"合併":20023,"特別":20024,"出版":20025,"戦い":20026,"運行":20027,"組織":20028,"初めて":20029,"目的":20030,"24":20031,"指定":20032,"ルス":20033,"つけ":20034,"帝国":20035,"AN":20036,"市立":20037,"出来":20038,"最も":20039,"4月1日":20040,"de":20041,"イタ":20042,"に対する":20043,"通常":20044,"ティー":20045,"んど":20046,"us":20047,"かけて":20048,"リオ":20049,"テル":20050,"果た":20051,"ER":20052,"プレイ":20053,"ドラマ":20054,"受賞":20055,"最大":20056,"スコ":20057,"クション":20058,"本作":20059,"名称":20060,"選手権":20061,"チャン":20062,"シェ":20063,"交通":20064,"ウォ":20065,"かり":20066,"ラジオ":20067,"一人":20068,"生産":20069,"企業":20070,"与え":20071,"ートル":20072,"プラ":20073,"協会":20074,"委員会":20075,"カード":20076,"共和":20077,"いった":20078,"ッツ":20079,"始め":20080,"対応":20081,"最高":20082,"21":20083,"海軍":20084,"公園":20085,"漫画":20086,"使わ":20087,"10日":20088,"勝利":20089,"23":20090,"ーター":20091,"京都":20092,"イド":20093,"30日":20094,"科学":20095,"IN":20096,"そこ":20097,"ヤー":20098,"がっ":20099,"セル":20100,"ハー":20101,"続け":20102,"合わせ":20103,"学生":20104,"部隊":20105,"2003年":20106,"事務":20107,"議会":20108,"警察":20109,"営業":20110,"わる":20111,"作詞":20112,"総合":20113,"運転":20114,"ニング":20115,"製作":20116,"月15日":20117,"まる":20118,"BS":20119,"搭載":20120,"60":20121,"ちゃ":20122,"サッカー":20123,"ミュー":20124,"運動":20125,"平成1":20126,"20日":20127,"イタリア":20128,"リリース":20129,"ライン":20130,"ブリ":20131,"JR":20132,"含む":20133,"クラブ":20134,"基本":20135,"2000年":20136,"188":20137,"自由":20138,"189":20139,"にかけて":20140,"結婚":20141,"ジャン":20142,"バンド":20143,"デザイン":20144,"大きな":20145,"伴い":20146,"ユニ":20147,"インター":20148,"ディング":20149,"ra":20150,"ヨー":20151,"サイト":20152,"北海道":20153,"しば":20154,"月25日":20155,"22":20156,"主人":20157,"独立":20158,"クス":20159,"ジー":20160,"ST":20161,"時期":20162,"神社":20163,"カップ":20164,"東京都":20165,"完成":20166,"予定":20167,"切り":20168,"といった":20169,"ビア":20170,"ON":20171,"内容":20172,"ソフト":20173,"タイトル":20174,"ディア":20175,"31日":20176,"編成":20177,"江戸":20178,"ほと":20179,"加え":20180,"飛行":20181,"ミー":20182,"宇宙":20183,"以前":20184,"シャル":20185,"一覧":20186,"コード":20187,"パイ":20188,"AT":20189,"St":20190,"AR":20191,"新聞":20192,"実際":20193,"大正":20194,"ユー":20195,"サービス":20196,"ギー":20197,"発見":20198,"2002年":20199,"いわ":20200,"スカ":20201,"人口":20202,"スーパー":20203,"した":20204,"成功":20205,"エンジン":20206,"完全":20207,"ri":20208,"組み":20209,"活躍":20210,"ほとんど":20211,"ストラ":20212,"太郎":20213,"提供":20214,"ed":20215,"国内":20216,"専門":20217,"ダン":20218,"2人":20219,"経営":20220,"特徴":20221,"ッグ":20222,"重要":20223,"自ら":20224,"BN":20225,"小説":20226,"そう":20227,"ポーツ":20228,"オリン":20229,"時点":20230,"移籍":20231,"参照":20232,"2001年":20233,"80":20234,"入っ":20235,"イベ":20236,"曜日":20237,"教会":20238,"連続":20239,"理由":20240,"期間":20241,"メートル":20242,"FC":20243,"ent":20244,"月28日":20245,"同時に":20246,"らか":20247,"クリ":20248,"and":20249,"構造":20250,"主人公":20251,"様々":20252,"企画":20253,"評価":20254,"187":20255,"非常":20256,"オープ":20257,"運営":20258,"データ":20259,"CD":20260,"対象":20261,"性格":20262,")(":20263,"乗り":20264,"古屋":20265,"挙げ":20266,"ディー":20267,"行動":20268,"ノー":20269,"異なる":20270,"導入":20271,"立ち":20272,"1回":20273,"決勝":20274,"すべ":20275,"再び":20276,"新た":20277,"しまっ":20278,"レース":20279,"78":20280,"子供":20281,"文字":20282,"名古屋":20283,"スポーツ":20284,"ピック":20285,"病院":20286,"インド":20287,"un":20288,"設計":20289,"撮影":20290,"共和国":20291,"国道":20292,"ISBN":20293,"フリー":20294,"よく":20295,"不明":20296,"月21日":20297,"支援":20298,"開業":20299,"連合":20300,"工業":20301,"フル":20302,"改称":20303,"初期":20304,"朝鮮":20305,"言わ":20306,"もっ":20307,"月27日":20308,"月26日":20309,"10年":20310,"認め":20311,"ベース":20312,"に対し":20313,"広島":20314,"指導":20315,"マス":20316,"ation":20317,"フレ":20318,"トロ":20319,"イベント":20320,"すべて":20321,"法人":20322,"指揮":20323,"たら":20324,"規模":20325,"昭和3":20326,"移動":20327,"紹介":20328,"学者":20329,"ひと":20330,"月2日":20331,"昭和4":20332,"月11日":20333,"ay":20334,"よる":20335,"ot":20336,"打ち":20337,"述べ":20338,"つか":20339,"ポン":20340,"会議":20341,"人気":20342,"ig":20343,"表記":20344,"くる":20345,"キャン":20346,"アップ":20347,"環境":20348,"わら":20349,"cm":20350,"月29日":20351,"もと":20352,"国家":20353,"国民":20354,"大きく":20355,"ウル":20356,"のち":20357,"ミュージ":20358,"好き":20359,"物語":20360,"um":20361,"どう":20362,"少年":20363,"展開":20364,"程度":20365,"労働":20366,"クラス":20367,"35":20368,"以来":20369,"表示":20370,"出す":20371,"団体":20372,"ここ":20373,"The":20374,"男性":20375,"工場":20376,"月16日":20377,"チャー":20378,"ーカー":20379,"楽曲":20380,"ダル":20381,"1999年":20382,"銀行":20383,"追加":20384,"装備":20385,"月24日":20386,"関連":20387,"距離":20388,"テーマ":20389,"昭和2":20390,"ポート":20391,"月14日":20392,"県道":20393,"競技":20394,"結成":20395,"共同":20396,"NH":20397,"19日":20398,"スタン":20399,"言葉":20400,"電気":20401,"舞台":20402,"変化":20403,"月22日":20404,"月23日":20405,"ピン":20406,"ずれ":20407,"その他":20408,"込ん":20409,"月18日":20410,"パス":20411,"1つ":20412,"由来":20413,"写真":20414,"高速":20415,"多数":20416,"ホール":20417,"学園":20418,"コーナー":20419,"番号":20420,"限定":20421,"ワン":20422,"空港":20423,"強い":20424,"ter":20425,"美術":20426,"ラム":20427,"込み":20428,"トー":20429,"方法":20430,"デュー":20431,"ギュ":20432,"福岡":20433,"そのため":20434,"天皇":20435,"月17日":20436,"けれ":20437,"過去":20438,"ジナル":20439,"じめ":20440,"70":20441,"いは":20442,"彼ら":20443,"ベン":20444,"全体":20445,"立て":20446,"トゥ":20447,"フォー":20448,"息子":20449,"ゅう":20450,"演奏":20451,"ぶり":20452,"ロッパ":20453,"ファー":20454,"月12日":20455,"ゴン":20456,"発行":20457,"試験":20458,"45":20459,"建築":20460,"地下":20461,"ad":20462,"劇場":20463,"思い":20464,"ファイ":20465,"ヨーロッパ":20466,"区間":20467,"陸軍":20468,"ow":20469,"ピー":20470,"地球":20471,"裁判":20472,"会長":20473,"横浜":20474,"AS":20475,"じる":20476,"やす":20477,"自治":20478,"ローマ":20479,"チュ":20480,"韓国":20481,"ウンド":20482,"作戦":20483,"26":20484,"オリンピック":20485,"アフ":20486,"連邦":20487,"ライト":20488,"小さ":20489,"ウム":20490,"九州":20491,"事故":20492,"スペイン":20493,"NHK":20494,"果たし":20495,"対戦":20496,"大戦":20497,"死去":20498,"統領":20499,"ワールド":20500,"1998年":20501,"周辺":20502,"社長":20503,"候補":20504,"協力":20505,"ur":20506,"月13日":20507,"通信":20508,"大統領":20509,"ます":20510,"iv":20511,"形式":20512,"ちゃん":20513,"ほぼ":20514,"キュ":20515,"登録":20516,"ag":20517,"ヨーク":20518,"オリジナル":20519,"つい":20520,"自然":20521,"コース":20522,"整備":20523,"統合":20524,"初代":20525,"アク":20526,"イズ":20527,"代目":20528,"昭和5":20529,"支配":20530,"込ま":20531,"アジア":20532,"行い":20533,"タイプ":20534,"民主":20535,"配信":20536,"なし":20537,"第一":20538,"では":20539,"ッジ":20540,"os":20541,"仕事":20542,"ヴォ":20543,"マーク":20544,"48":20545,"県立":20546,"装置":20547,"編曲":20548,"いずれ":20549,"かい":20550,"引退":20551,"カリ":20552,"イング":20553,"ルド":20554,"あるいは":20555,"メージ":20556,"28":20557,"普通":20558,"In":20559,"産業":20560,"1997年":20561,"掲載":20562,"違い":20563,"経験":20564,"状況":20565,"んな":20566,"方面":20567,"べき":20568,"原作":20569,"誕生":20570,"複数":20571,"運用":20572,"効果":20573,"クレ":20574,"映像":20575,"バラ":20576,"専用":20577,"使っ":20578,"ピア":20579,"少女":20580,"90":20581,"受ける":20582,"1996年":20583,"ケン":20584,"27":20585,"タイム":20586,"1人":20587,"OR":20588,"ごと":20589,"ステージ":20590,"含ま":20591,"編集":20592,"付き":20593,"発足":20594,"基づ":20595,"なか":20596,"同じく":20597,"ロス":20598,"ir":20599,"郵便":20600,"らし":20601,"大臣":20602,"AC":20603,"千葉":20604,"...":20605,"工事":20606,"移転":20607,"生徒":20608,"動物":20609,"1995年":20610,"確認":20611,"主張":20612,"ネス":20613,"AL":20614,"トップ":20615,"表現":20616,"輸送":20617,"生き":20618,"ec":20619,"ミニ":20620,"ナン":20621,"イント":20622,"チン":20623,"本部":20624,"破壊":20625,"im":20626,"メイン":20627,"なけれ":20628,"ナイ":20629,"ニュース":20630,"2つ":20631,"掛け":20632,"500":20633,"繰り":20634,"制度":20635,"チョ":20636,"比較":20637,"トラン":20638,"ia":20639,"現代":20640,"パート":20641,"元年":20642,"朝日":20643,"プロデュー":20644,"AM":20645,"レーション":20646,"プレー":20647,"成立":20648,"いい":20649,"ケー":20650,"ちら":20651,"唯一":20652,"かる":20653,"文学":20654,"ガル":20655,"2回":20656,"33":20657,"ロード":20658,"研究所":20659,"アラ":20660,"可能性":20661,"報告":20662,"替え":20663,"1994年":20664,"業務":20665,"本人":20666,"ゴール":20667,"個人":20668,"形成":20669,"部門":20670,"かし":20671,"人々":20672,"ニューヨーク":20673,"ボン":20674,"新しい":20675,"id":20676,"スティ":20677,"死亡":20678,"ut":20679,"途中":20680,"186":20681,"入る":20682,"em":20683,"アウ":20684,"取得":20685,"条件":20686,"付近":20687,"王国":20688,"えば":20689,"カナ":20690,"ブレ":20691,"行政":20692,"the":20693,"保護":20694,"家族":20695,"ベスト":20696,"1993年":20697,"勝ち":20698,"図書":20699,"日本語":20700,"ペン":20701,"):":20702,"3人":20703,"二次":20704,"反対":20705,"mm":20706,"EN":20707,"中継":20708,"21年":20709,"正式":20710,"イラ":20711,"キン":20712,"近く":20713,"種類":20714,"1992年":20715,"ワーク":20716,"発展":20717,"主要":20718,"オブ":20719,"1990年":20720,"TO":20721,"ギャ":20722,"事務所":20723,"ul":20724,"指す":20725,"ゆる":20726,"以後":20727,"シャー":20728,"方式":20729,"29":20730,"昭和1":20731,"バック":20732,"国立":20733,"行き":20734,"有名":20735,"観光":20736,"選出":20737,"Ch":20738,"US":20739,"続い":20740,"成績":20741,"ントン":20742,"フラ":20743,"製品":20744,"博士":20745,"フロ":20746,"拡大":20747,"将軍":20748,"直接":20749,"オス":20750,"サル":20751,"言う":20752,"ッション":20753,"oc":20754,"リーン":20755,"コロ":20756,"ゴル":20757,"グレ":20758,"アレ":20759,"げる":20760,"BC":20761,"追い":20762,"使い":20763,"店舗":20764,"料理":20765,"モー":20766,"男子":20767,"オープン":20768,"セント":20769,"連載":20770,"ガス":20771,"愛知":20772,"公演":20773,"所在":20774,"復帰":20775,"芸術":20776,"呼び":20777,"南部":20778,"魔法":20779,"住民":20780,"作家":20781,"55":20782,"競馬":20783,"電話":20784,"方向":20785,"出さ":20786,"1991年":20787,"アンド":20788,"系統":20789,"です":20790,"本社":20791,"ウェー":20792,"生物":20793,"セット":20794,"はじめ":20795,"言語":20796,"1989年":20797,"合い":20798,"36":20799,"描か":20800,"きっ":20801,"学科":20802,"迎え":20803,"本線":20804,"後半":20805,"開設":20806,"武器":20807,"キシ":20808,"とって":20809,"TV":20810,"施行":20811,"ap":20812,"FA":20813,"ズム":20814,"アド":20815,"1987年":20816,"市内":20817,"トレ":20818,"なさ":20819,"大型":20820,"を通":20821,"ヘル":20822,"食べ":20823,"OS":20824,"th":20825,"書き":20826,"らい":20827,"新潟":20828,"父親":20829,"RE":20830,"スタジオ":20831,"川県":20832,"グラン":20833,"続き":20834,"議院":20835,"含め":20836,"アカ":20837,"CM":20838,"もう":20839,
[...]
